{"version": "1.0", "truncation": null, "padding": null, "added_tokens": [{"id": 163584, "content": "[BOS]", "single_word": false, "lstrip": false, "rstrip": false, "normalized": false, "special": true}, {"id": 163585, "content": "[EOS]", "single_word": false, "lstrip": false, "rstrip": false, "normalized": false, "special": true}, {"id": 163586, "content": "<|end_of_msg|>", "single_word": false, "lstrip": false, "rstrip": false, "normalized": false, "special": true}, {"id": 163587, "content": "<|open|>", "single_word": false, "lstrip": false, "rstrip": false, "normalized": false, "special": false}, {"id": 163588, "content": "<|close|>", "single_word": false, "lstrip": false, "rstrip": false, "normalized": false, "special": false}, {"id": 163589, "content": "<|sep|>", "single_word": false, "lstrip": false, "rstrip": false, "normalized": false, "special": false}, {"id": 163590, "content": "[start_header_id]", "single_word": false, "lstrip": false, "rstrip": false, "normalized": false, "special": true}, {"id": 163591, "content": "[end_header_id]", "single_word": false, "lstrip": false, "rstrip": false, "normalized": false, "special": true}, {"id": 163592, "content": "<|reserved_token_163592|>", "single_word": false, "lstrip": false, "rstrip": false, "normalized": false, "special": true}, {"id": 163593, "content": "[EOT]", "single_word": false, "lstrip": false, "rstrip": false, "normalized": false, "special": true}, {"id": 163594, "content": "<|reserved_token_163594|>", "single_word": false, "lstrip": false, "rstrip": false, "normalized": false, "special": true}, {"id": 163595, "content": "<|reserved_token_163595|>", "single_word": false, "lstrip": false, "rstrip": false, "normalized": false, "special": true}, {"id": 163596, "content": "<|reserved_token_163596|>", "single_word": false, "lstrip": false, "rstrip": false, "normalized": false, "special": true}, {"id": 163597, "content": "<|reserved_token_163597|>", "single_word": false, "lstrip": false, "rstrip": false, "normalized": false, "special": true}, {"id": 163598, "content": "<|reserved_token_163598|>", "single_word": false, "lstrip": false, "rstrip": false, "normalized": false, "special": true}, {"id": 163599, "content": "<|reserved_token_163599|>", "single_word": false, "lstrip": false, "rstrip": false, "normalized": false, "special": true}, {"id": 163600, "content": "<|reserved_token_163600|>", "single_word": false, "lstrip": false, "rstrip": false, "normalized": false, "special": true}, {"id": 163601, "content": "<|reserved_token_163601|>", "single_word": false, "lstrip": false, "rstrip": false, "normalized": false, "special": true}, {"id": 163602, "content": "<|media_begin|>", "single_word": false, "lstrip": false, "rstrip": false, "normalized": false, "special": true}, {"id": 163603, "content": "<|media_content|>", "single_word": false, "lstrip": false, "rstrip": false, "normalized": false, "special": true}, {"id": 163604, "content": "<|media_end|>", "single_word": false, "lstrip": false, "rstrip": false, "normalized": false, "special": true}, {"id": 163605, "content": "<|media_pad|>", "single_word": false, "lstrip": false, "rstrip": false, "normalized": false, "special": true}, {"id": 163606, "content": "<|reserved_token_163606|>", "single_word": false, "lstrip": false, "rstrip": false, "normalized": false, "special": true}, {"id": 163607, "content": "<|reserved_token_163607|>", "single_word": false, "lstrip": false, "rstrip": false, "normalized": false, "special": true}, {"id": 163608, "content": "<|reserved_token_163608|>", "single_word": false, "lstrip": false, "rstrip": false, "normalized": false, "special": true}, {"id": 163609, "content": "<|reserved_token_163609|>", "single_word": false, "lstrip": false, "rstrip": false, "normalized": false, "special": true}, {"id": 163610, "content": "<|reserved_token_163610|>", "single_word": false, "lstrip": false, "rstrip": false, "normalized": false, "special": true}, {"id": 163611, "content": "<|reserved_token_163611|>", "single_word": false, "lstrip": false, "rstrip": false, "normalized": false, "special": true}, {"id": 163612, "content": "<|reserved_token_163612|>", "single_word": false, "lstrip": false, "rstrip": false, "normalized": false, "special": true}, {"id": 163613, "content": "<|reserved_token_163613|>", "single_word": false, "lstrip": false, "rstrip": false, "normalized": false, "special": true}, {"id": 163614, "content": "<|reserved_token_163614|>", "single_word": false, "lstrip": false, "rstrip": false, "normalized": false, "special": true}, {"id": 163615, "content": "<|reserved_token_163615|>", "single_word": false, "lstrip": false, "rstrip": false, "normalized": false, "special": true}, {"id": 163616, "content": "<|reserved_token_163616|>", "single_word": false, "lstrip": false, "rstrip": false, "normalized": false, "special": true}, {"id": 163617, "content": "<|reserved_token_163617|>", "single_word": false, "lstrip": false, "rstrip": false, "normalized": false, "special": true}, {"id": 163618, "content": "<|reserved_token_163618|>", "single_word": false, "lstrip": false, "rstrip": false, "normalized": false, "special": true}, {"id": 163619, "content": "<|reserved_token_163619|>", "single_word": false, "lstrip": false, "rstrip": false, "normalized": false, "special": true}, {"id": 163620, "content": "<|reserved_token_163620|>", "single_word": false, "lstrip": false, "rstrip": false, "normalized": false, "special": true}, {"id": 163621, "content": "<|reserved_token_163621|>", "single_word": false, "lstrip": false, "rstrip": false, "normalized": false, "special": true}, {"id": 163622, "content": "<|reserved_token_163622|>", "single_word": false, "lstrip": false, "rstrip": false, "normalized": false, "special": true}, {"id": 163623, "content": "<|reserved_token_163623|>", "single_word": false, "lstrip": false, "rstrip": false, "normalized": false, "special": true}, {"id": 163624, "content": "<|reserved_token_163624|>", "single_word": false, "lstrip": false, "rstrip": false, "normalized": false, "special": true}, {"id": 163625, "content": "<|reserved_token_163625|>", "single_word": false, "lstrip": false, "rstrip": false, "normalized": false, "special": true}, {"id": 163626, "content": "<|reserved_token_163626|>", "single_word": false, "lstrip": false, "rstrip": false, "normalized": false, "special": true}, {"id": 163627, "content": "<|reserved_token_163627|>", "single_word": false, "lstrip": false, "rstrip": false, "normalized": false, "special": true}, {"id": 163628, "content": "<|reserved_token_163628|>", "single_word": false, "lstrip": false, "rstrip": false, "normalized": false, "special": true}, {"id": 163629, "content": "<|reserved_token_163629|>", "single_word": false, "lstrip": false, "rstrip": false, "normalized": false, "special": true}, {"id": 163630, "content": "<|reserved_token_163630|>", "single_word": false, "lstrip": false, "rstrip": false, "normalized": false, "special": true}, {"id": 163631, "content": "<|reserved_token_163631|>", "single_word": false, "lstrip": false, "rstrip": false, "normalized": false, "special": true}, {"id": 163632, "content": "<|reserved_token_163632|>", "single_word": false, "lstrip": false, "rstrip": false, "normalized": false, "special": true}, {"id": 163633, "content": "<|reserved_token_163633|>", "single_word": false, "lstrip": false, "rstrip": false, "normalized": false, "special": true}, {"id": 163634, "content": "<|reserved_token_163634|>", "single_word": false, "lstrip": false, "rstrip": false, "normalized": false, "special": true}, {"id": 163635, "content": "<|reserved_token_163635|>", "single_word": false, "lstrip": false, "rstrip": false, "normalized": false, "special": true}, {"id": 163636, "content": "<|reserved_token_163636|>", "single_word": false, "lstrip": false, "rstrip": false, "normalized": false, "special": true}, {"id": 163637, "content": "<|reserved_token_163637|>", "single_word": false, "lstrip": false, "rstrip": false, "normalized": false, "special": true}, {"id": 163638, "content": "<|reserved_token_163638|>", "single_word": false, "lstrip": false, "rstrip": false, "normalized": false, "special": true}, {"id": 163639, "content": "<|reserved_token_163639|>", "single_word": false, "lstrip": false, "rstrip": false, "normalized": false, "special": true}, {"id": 163640, "content": "<|reserved_token_163640|>", "single_word": false, "lstrip": false, "rstrip": false, "normalized": false, "special": true}, {"id": 163641, "content": "<|reserved_token_163641|>", "single_word": false, "lstrip": false, "rstrip": false, "normalized": false, "special": true}, {"id": 163642, "content": "<|reserved_token_163642|>", "single_word": false, "lstrip": false, "rstrip": false, "normalized": false, "special": true}, {"id": 163643, "content": "<|reserved_token_163643|>", "single_word": false, "lstrip": false, "rstrip": false, "normalized": false, "special": true}, {"id": 163644, "content": "<|reserved_token_163644|>", "single_word": false, "lstrip": false, "rstrip": false, "normalized": false, "special": true}, {"id": 163645, "content": "<|reserved_token_163645|>", "single_word": false, "lstrip": false, "rstrip": false, "normalized": false, "special": true}, {"id": 163646, "content": "<|reserved_token_163646|>", "single_word": false, "lstrip": false, "rstrip": false, "normalized": false, "special": true}, {"id": 163647, "content": "<|reserved_token_163647|>", "single_word": false, "lstrip": false, "rstrip": false, "normalized": false, "special": true}, {"id": 163648, "content": "<|reserved_token_163648|>", "single_word": false, "lstrip": false, "rstrip": false, "normalized": false, "special": true}, {"id": 163649, "content": "<osagent_mode>", "single_word": false, "lstrip": false, "rstrip": false, "normalized": false, "special": true}, {"id": 163650, "content": "<|reserved_token_163650|>", "single_word": false, "lstrip": false, "rstrip": false, "normalized": false, "special": true}, {"id": 163651, "content": "<|reserved_token_163651|>", "single_word": false, "lstrip": false, "rstrip": false, "normalized": false, "special": true}, {"id": 163652, "content": "<|reserved_token_163652|>", "single_word": false, "lstrip": false, "rstrip": false, "normalized": false, "special": true}, {"id": 163653, "content": "<|reserved_token_163653|>", "single_word": false, "lstrip": false, "rstrip": false, "normalized": false, "special": true}, {"id": 163654, "content": "<|reserved_token_163654|>", "single_word": false, "lstrip": false, "rstrip": false, "normalized": false, "special": true}, {"id": 163655, "content": "<|reserved_token_163655|>", "single_word": false, "lstrip": false, "rstrip": false, "normalized": false, "special": true}, {"id": 163656, "content": "<|reserved_token_163656|>", "single_word": false, "lstrip": false, "rstrip": false, "normalized": false, "special": true}, {"id": 163657, "content": "<|reserved_token_163657|>", "single_word": false, "lstrip": false, "rstrip": false, "normalized": false, "special": true}, {"id": 163658, "content": "<|reserved_token_163658|>", "single_word": false, "lstrip": false, "rstrip": false, "normalized": false, "special": true}, {"id": 163659, "content": "<|reserved_token_163659|>", "single_word": false, "lstrip": false, "rstrip": false, "normalized": false, "special": true}, {"id": 163660, "content": "<|reserved_token_163660|>", "single_word": false, "lstrip": false, "rstrip": false, "normalized": false, "special": true}, {"id": 163661, "content": "<|reserved_token_163661|>", "single_word": false, "lstrip": false, "rstrip": false, "normalized": false, "special": true}, {"id": 163662, "content": "<|reserved_token_163662|>", "single_word": false, "lstrip": false, "rstrip": false, "normalized": false, "special": true}, {"id": 163663, "content": "<|reserved_token_163663|>", "single_word": false, "lstrip": false, "rstrip": false, "normalized": false, "special": true}, {"id": 163664, "content": "<|reserved_token_163664|>", "single_word": false, "lstrip": false, "rstrip": false, "normalized": false, "special": true}, {"id": 163665, "content": "<|reserved_token_163665|>", "single_word": false, "lstrip": false, "rstrip": false, "normalized": false, "special": true}, {"id": 163666, "content": "<|reserved_token_163666|>", "single_word": false, "lstrip": false, "rstrip": false, "normalized": false, "special": true}, {"id": 163667, "content": "<|reserved_token_163667|>", "single_word": false, "lstrip": false, "rstrip": false, "normalized": false, "special": true}, {"id": 163668, "content": "<|reserved_token_163668|>", "single_word": false, "lstrip": false, "rstrip": false, "normalized": false, "special": true}, {"id": 163669, "content": "<|reserved_token_163669|>", "single_word": false, "lstrip": false, "rstrip": false, "normalized": false, "special": true}, {"id": 163670, "content": "<|reserved_token_163670|>", "single_word": false, "lstrip": false, "rstrip": false, "normalized": false, "special": true}, {"id": 163671, "content": "<|reserved_token_163671|>", "single_word": false, "lstrip": false, "rstrip": false, "normalized": false, "special": true}, {"id": 163672, "content": "<|reserved_token_163672|>", "single_word": false, "lstrip": false, "rstrip": false, "normalized": false, "special": true}, {"id": 163673, "content": "<|reserved_token_163673|>", "single_word": false, "lstrip": false, "rstrip": false, "normalized": false, "special": true}, {"id": 163674, "content": "<|reserved_token_163674|>", "single_word": false, "lstrip": false, "rstrip": false, "normalized": false, "special": true}, {"id": 163675, "content": "<|reserved_token_163675|>", "single_word": false, "lstrip": false, "rstrip": false, "normalized": false, "special": true}, {"id": 163676, "content": "<|reserved_token_163676|>", "single_word": false, "lstrip": false, "rstrip": false, "normalized": false, "special": true}, {"id": 163677, "content": "<|reserved_token_163677|>", "single_word": false, "lstrip": false, "rstrip": false, "normalized": false, "special": true}, {"id": 163678, "content": "<|reserved_token_163678|>", "single_word": false, "lstrip": false, "rstrip": false, "normalized": false, "special": true}, {"id": 163679, "content": "<|reserved_token_163679|>", "single_word": false, "lstrip": false, "rstrip": false, "normalized": false, "special": true}, {"id": 163680, "content": "<|reserved_token_163680|>", "single_word": false, "lstrip": false, "rstrip": false, "normalized": false, "special": true}, {"id": 163681, "content": "<|reserved_token_163681|>", "single_word": false, "lstrip": false, "rstrip": false, "normalized": false, "special": true}, {"id": 163682, "content": "<|reserved_token_163682|>", "single_word": false, "lstrip": false, "rstrip": false, "normalized": false, "special": true}, {"id": 163683, "content": "<|reserved_token_163683|>", "single_word": false, "lstrip": false, "rstrip": false, "normalized": false, "special": true}, {"id": 163684, "content": "<|reserved_token_163684|>", "single_word": false, "lstrip": false, "rstrip": false, "normalized": false, "special": true}, {"id": 163685, "content": "<|reserved_token_163685|>", "single_word": false, "lstrip": false, "rstrip": false, "normalized": false, "special": true}, {"id": 163686, "content": "<|reserved_token_163686|>", "single_word": false, "lstrip": false, "rstrip": false, "normalized": false, "special": true}, {"id": 163687, "content": "<|reserved_token_163687|>", "single_word": false, "lstrip": false, "rstrip": false, "normalized": false, "special": true}, {"id": 163688, "content": "<|reserved_token_163688|>", "single_word": false, "lstrip": false, "rstrip": false, "normalized": false, "special": true}, {"id": 163689, "content": "<|reserved_token_163689|>", "single_word": false, "lstrip": false, "rstrip": false, "normalized": false, "special": true}, {"id": 163690, "content": "<|reserved_token_163690|>", "single_word": false, "lstrip": false, "rstrip": false, "normalized": false, "special": true}, {"id": 163691, "content": "<|reserved_token_163691|>", "single_word": false, "lstrip": false, "rstrip": false, "normalized": false, "special": true}, {"id": 163692, "content": "<|reserved_token_163692|>", "single_word": false, "lstrip": false, "rstrip": false, "normalized": false, "special": true}, {"id": 163693, "content": "<|reserved_token_163693|>", "single_word": false, "lstrip": false, "rstrip": false, "normalized": false, "special": true}, {"id": 163694, "content": "<|reserved_token_163694|>", "single_word": false, "lstrip": false, "rstrip": false, "normalized": false, "special": true}, {"id": 163695, "content": "<|reserved_token_163695|>", "single_word": false, "lstrip": false, "rstrip": false, "normalized": false, "special": true}, {"id": 163696, "content": "<|reserved_token_163696|>", "single_word": false, "lstrip": false, "rstrip": false, "normalized": false, "special": true}, {"id": 163697, "content": "<|reserved_token_163697|>", "single_word": false, "lstrip": false, "rstrip": false, "normalized": false, "special": true}, {"id": 163698, "content": "<|reserved_token_163698|>", "single_word": false, "lstrip": false, "rstrip": false, "normalized": false, "special": true}, {"id": 163699, "content": "<|reserved_token_163699|>", "single_word": false, "lstrip": false, "rstrip": false, "normalized": false, "special": true}, {"id": 163700, "content": "<|reserved_token_163700|>", "single_word": false, "lstrip": false, "rstrip": false, "normalized": false, "special": true}, {"id": 163701, "content": "<|reserved_token_163701|>", "single_word": false, "lstrip": false, "rstrip": false, "normalized": false, "special": true}, {"id": 163702, "content": "<|reserved_token_163702|>", "single_word": false, "lstrip": false, "rstrip": false, "normalized": false, "special": true}, {"id": 163703, "content": "<|reserved_token_163703|>", "single_word": false, "lstrip": false, "rstrip": false, "normalized": false, "special": true}, {"id": 163704, "content": "<|reserved_token_163704|>", "single_word": false, "lstrip": false, "rstrip": false, "normalized": false, "special": true}, {"id": 163705, "content": "<|reserved_token_163705|>", "single_word": false, "lstrip": false, "rstrip": false, "normalized": false, "special": true}, {"id": 163706, "content": "<|reserved_token_163706|>", "single_word": false, "lstrip": false, "rstrip": false, "normalized": false, "special": true}, {"id": 163707, "content": "<|reserved_token_163707|>", "single_word": false, "lstrip": false, "rstrip": false, "normalized": false, "special": true}, {"id": 163708, "content": "<|reserved_token_163708|>", "single_word": false, "lstrip": false, "rstrip": false, "normalized": false, "special": true}, {"id": 163709, "content": "<|reserved_token_163709|>", "single_word": false, "lstrip": false, "rstrip": false, "normalized": false, "special": true}, {"id": 163710, "content": "<|reserved_token_163710|>", "single_word": false, "lstrip": false, "rstrip": false, "normalized": false, "special": true}, {"id": 163711, "content": "<|reserved_token_163711|>", "single_word": false, "lstrip": false, "rstrip": false, "normalized": false, "special": true}, {"id": 163712, "content": "<|reserved_token_163712|>", "single_word": false, "lstrip": false, "rstrip": false, "normalized": false, "special": true}, {"id": 163713, "content": "<|reserved_token_163713|>", "single_word": false, "lstrip": false, "rstrip": false, "normalized": false, "special": true}, {"id": 163714, "content": "<|reserved_token_163714|>", "single_word": false, "lstrip": false, "rstrip": false, "normalized": false, "special": true}, {"id": 163715, "content": "<|reserved_token_163715|>", "single_word": false, "lstrip": false, "rstrip": false, "normalized": false, "special": true}, {"id": 163716, "content": "<|reserved_token_163716|>", "single_word": false, "lstrip": false, "rstrip": false, "normalized": false, "special": true}, {"id": 163717, "content": "<|reserved_token_163717|>", "single_word": false, "lstrip": false, "rstrip": false, "normalized": false, "special": true}, {"id": 163718, "content": "<|reserved_token_163718|>", "single_word": false, "lstrip": false, "rstrip": false, "normalized": false, "special": true}, {"id": 163719, "content": "<|reserved_token_163719|>", "single_word": false, "lstrip": false, "rstrip": false, "normalized": false, "special": true}, {"id": 163720, "content": "<|reserved_token_163720|>", "single_word": false, "lstrip": false, "rstrip": false, "normalized": false, "special": true}, {"id": 163721, "content": "<|reserved_token_163721|>", "single_word": false, "lstrip": false, "rstrip": false, "normalized": false, "special": true}, {"id": 163722, "content": "<|reserved_token_163722|>", "single_word": false, "lstrip": false, "rstrip": false, "normalized": false, "special": true}, {"id": 163723, "content": "<|reserved_token_163723|>", "single_word": false, "lstrip": false, "rstrip": false, "normalized": false, "special": true}, {"id": 163724, "content": "<|reserved_token_163724|>", "single_word": false, "lstrip": false, "rstrip": false, "normalized": false, "special": true}, {"id": 163725, "content": "<|reserved_token_163725|>", "single_word": false, "lstrip": false, "rstrip": false, "normalized": false, "special": true}, {"id": 163726, "content": "<|reserved_token_163726|>", "single_word": false, "lstrip": false, "rstrip": false, "normalized": false, "special": true}, {"id": 163727, "content": "<|reserved_token_163727|>", "single_word": false, "lstrip": false, "rstrip": false, "normalized": false, "special": true}, {"id": 163728, "content": "<|reserved_token_163728|>", "single_word": false, "lstrip": false, "rstrip": false, "normalized": false, "special": true}, {"id": 163729, "content": "<|reserved_token_163729|>", "single_word": false, "lstrip": false, "rstrip": false, "normalized": false, "special": true}, {"id": 163730, "content": "<|reserved_token_163730|>", "single_word": false, "lstrip": false, "rstrip": false, "normalized": false, "special": true}, {"id": 163731, "content": "<|reserved_token_163731|>", "single_word": false, "lstrip": false, "rstrip": false, "normalized": false, "special": true}, {"id": 163732, "content": "<|reserved_token_163732|>", "single_word": false, "lstrip": false, "rstrip": false, "normalized": false, "special": true}, {"id": 163733, "content": "<|reserved_token_163733|>", "single_word": false, "lstrip": false, "rstrip": false, "normalized": false, "special": true}, {"id": 163734, "content": "<|reserved_token_163734|>", "single_word": false, "lstrip": false, "rstrip": false, "normalized": false, "special": true}, {"id": 163735, "content": "<|reserved_token_163735|>", "single_word": false, "lstrip": false, "rstrip": false, "normalized": false, "special": true}, {"id": 163736, "content": "<|reserved_token_163736|>", "single_word": false, "lstrip": false, "rstrip": false, "normalized": false, "special": true}, {"id": 163737, "content": "<|reserved_token_163737|>", "single_word": false, "lstrip": false, "rstrip": false, "normalized": false, "special": true}, {"id": 163738, "content": "<|reserved_token_163738|>", "single_word": false, "lstrip": false, "rstrip": false, "normalized": false, "special": true}, {"id": 163739, "content": "<|reserved_token_163739|>", "single_word": false, "lstrip": false, "rstrip": false, "normalized": false, "special": true}, {"id": 163740, "content": "<|reserved_token_163740|>", "single_word": false, "lstrip": false, "rstrip": false, "normalized": false, "special": true}, {"id": 163741, "content": "<|reserved_token_163741|>", "single_word": false, "lstrip": false, "rstrip": false, "normalized": false, "special": true}, {"id": 163742, "content": "<|reserved_token_163742|>", "single_word": false, "lstrip": false, "rstrip": false, "normalized": false, "special": true}, {"id": 163743, "content": "<|reserved_token_163743|>", "single_word": false, "lstrip": false, "rstrip": false, "normalized": false, "special": true}, {"id": 163744, "content": "<|reserved_token_163744|>", "single_word": false, "lstrip": false, "rstrip": false, "normalized": false, "special": true}, {"id": 163745, "content": "<|reserved_token_163745|>", "single_word": false, "lstrip": false, "rstrip": false, "normalized": false, "special": true}, {"id": 163746, "content": "<|reserved_token_163746|>", "single_word": false, "lstrip": false, "rstrip": false, "normalized": false, "special": true}, {"id": 163747, "content": "<|reserved_token_163747|>", "single_word": false, "lstrip": false, "rstrip": false, "normalized": false, "special": true}, {"id": 163748, "content": "<|reserved_token_163748|>", "single_word": false, "lstrip": false, "rstrip": false, "normalized": false, "special": true}, {"id": 163749, "content": "<|reserved_token_163749|>", "single_word": false, "lstrip": false, "rstrip": false, "normalized": false, "special": true}, {"id": 163750, "content": "<|reserved_token_163750|>", "single_word": false, "lstrip": false, "rstrip": false, "normalized": false, "special": true}, {"id": 163751, "content": "<|reserved_token_163751|>", "single_word": false, "lstrip": false, "rstrip": false, "normalized": false, "special": true}, {"id": 163752, "content": "<|reserved_token_163752|>", "single_word": false, "lstrip": false, "rstrip": false, "normalized": false, "special": true}, {"id": 163753, "content": "<|reserved_token_163753|>", "single_word": false, "lstrip": false, "rstrip": false, "normalized": false, "special": true}, {"id": 163754, "content": "<|reserved_token_163754|>", "single_word": false, "lstrip": false, "rstrip": false, "normalized": false, "special": true}, {"id": 163755, "content": "<|reserved_token_163755|>", "single_word": false, "lstrip": false, "rstrip": false, "normalized": false, "special": true}, {"id": 163756, "content": "<|reserved_token_163756|>", "single_word": false, "lstrip": false, "rstrip": false, "normalized": false, "special": true}, {"id": 163757, "content": "<|reserved_token_163757|>", "single_word": false, "lstrip": false, "rstrip": false, "normalized": false, "special": true}, {"id": 163758, "content": "<|reserved_token_163758|>", "single_word": false, "lstrip": false, "rstrip": false, "normalized": false, "special": true}, {"id": 163759, "content": "<|reserved_token_163759|>", "single_word": false, "lstrip": false, "rstrip": false, "normalized": false, "special": true}, {"id": 163760, "content": "<|reserved_token_163760|>", "single_word": false, "lstrip": false, "rstrip": false, "normalized": false, "special": true}, {"id": 163761, "content": "<|reserved_token_163761|>", "single_word": false, "lstrip": false, "rstrip": false, "normalized": false, "special": true}, {"id": 163762, "content": "<|reserved_token_163762|>", "single_word": false, "lstrip": false, "rstrip": false, "normalized": false, "special": true}, {"id": 163763, "content": "<|reserved_token_163763|>", "single_word": false, "lstrip": false, "rstrip": false, "normalized": false, "special": true}, {"id": 163764, "content": "<|reserved_token_163764|>", "single_word": false, "lstrip": false, "rstrip": false, "normalized": false, "special": true}, {"id": 163765, "content": "<|reserved_token_163765|>", "single_word": false, "lstrip": false, "rstrip": false, "normalized": false, "special": true}, {"id": 163766, "content": "<|reserved_token_163766|>", "single_word": false, "lstrip": false, "rstrip": false, "normalized": false, "special": true}, {"id": 163767, "content": "<|reserved_token_163767|>", "single_word": false, "lstrip": false, "rstrip": false, "normalized": false, "special": true}, {"id": 163768, "content": "<|reserved_token_163768|>", "single_word": false, "lstrip": false, "rstrip": false, "normalized": false, "special": true}, {"id": 163769, "content": "<|reserved_token_163769|>", "single_word": false, "lstrip": false, "rstrip": false, "normalized": false, "special": true}, {"id": 163770, "content": "<|reserved_token_163770|>", "single_word": false, "lstrip": false, "rstrip": false, "normalized": false, "special": true}, {"id": 163771, "content": "<|reserved_token_163771|>", "single_word": false, "lstrip": false, "rstrip": false, "normalized": false, "special": true}, {"id": 163772, "content": "<|reserved_token_163772|>", "single_word": false, "lstrip": false, "rstrip": false, "normalized": false, "special": true}, {"id": 163773, "content": "<|reserved_token_163773|>", "single_word": false, "lstrip": false, "rstrip": false, "normalized": false, "special": true}, {"id": 163774, "content": "<|reserved_token_163774|>", "single_word": false, "lstrip": false, "rstrip": false, "normalized": false, "special": true}, {"id": 163775, "content": "<|reserved_token_163775|>", "single_word": false, "lstrip": false, "rstrip": false, "normalized": false, "special": true}, {"id": 163776, "content": "<|reserved_token_163776|>", "single_word": false, "lstrip": false, "rstrip": false, "normalized": false, "special": true}, {"id": 163777, "content": "<|reserved_token_163777|>", "single_word": false, "lstrip": false, "rstrip": false, "normalized": false, "special": true}, {"id": 163778, "content": "<|reserved_token_163778|>", "single_word": false, "lstrip": false, "rstrip": false, "normalized": false, "special": true}, {"id": 163779, "content": "<|reserved_token_163779|>", "single_word": false, "lstrip": false, "rstrip": false, "normalized": false, "special": true}, {"id": 163780, "content": "<|reserved_token_163780|>", "single_word": false, "lstrip": false, "rstrip": false, "normalized": false, "special": true}, {"id": 163781, "content": "<|reserved_token_163781|>", "single_word": false, "lstrip": false, "rstrip": false, "normalized": false, "special": true}, {"id": 163782, "content": "<|reserved_token_163782|>", "single_word": false, "lstrip": false, "rstrip": false, "normalized": false, "special": true}, {"id": 163783, "content": "<|reserved_token_163783|>", "single_word": false, "lstrip": false, "rstrip": false, "normalized": false, "special": true}, {"id": 163784, "content": "<|reserved_token_163784|>", "single_word": false, "lstrip": false, "rstrip": false, "normalized": false, "special": true}, {"id": 163785, "content": "<|reserved_token_163785|>", "single_word": false, "lstrip": false, "rstrip": false, "normalized": false, "special": true}, {"id": 163786, "content": "<|reserved_token_163786|>", "single_word": false, "lstrip": false, "rstrip": false, "normalized": false, "special": true}, {"id": 163787, "content": "<|reserved_token_163787|>", "single_word": false, "lstrip": false, "rstrip": false, "normalized": false, "special": true}, {"id": 163788, "content": "<|reserved_token_163788|>", "single_word": false, "lstrip": false, "rstrip": false, "normalized": false, "special": true}, {"id": 163789, "content": "<|reserved_token_163789|>", "single_word": false, "lstrip": false, "rstrip": false, "normalized": false, "special": true}, {"id": 163790, "content": "<|reserved_token_163790|>", "single_word": false, "lstrip": false, "rstrip": false, "normalized": false, "special": true}, {"id": 163791, "content": "<|reserved_token_163791|>", "single_word": false, "lstrip": false, "rstrip": false, "normalized": false, "special": true}, {"id": 163792, "content": "<|reserved_token_163792|>", "single_word": false, "lstrip": false, "rstrip": false, "normalized": false, "special": true}, {"id": 163793, "content": "<|reserved_token_163793|>", "single_word": false, "lstrip": false, "rstrip": false, "normalized": false, "special": true}, {"id": 163794, "content": "<|reserved_token_163794|>", "single_word": false, "lstrip": false, "rstrip": false, "normalized": false, "special": true}, {"id": 163795, "content": "<|reserved_token_163795|>", "single_word": false, "lstrip": false, "rstrip": false, "normalized": false, "special": true}, {"id": 163796, "content": "<|reserved_token_163796|>", "single_word": false, "lstrip": false, "rstrip": false, "normalized": false, "special": true}, {"id": 163797, "content": "<|reserved_token_163797|>", "single_word": false, "lstrip": false, "rstrip": false, "normalized": false, "special": true}, {"id": 163798, "content": "<|reserved_token_163798|>", "single_word": false, "lstrip": false, "rstrip": false, "normalized": false, "special": true}, {"id": 163799, "content": "<|reserved_token_163799|>", "single_word": false, "lstrip": false, "rstrip": false, "normalized": false, "special": true}, {"id": 163800, "content": "<|reserved_token_163800|>", "single_word": false, "lstrip": false, "rstrip": false, "normalized": false, "special": true}, {"id": 163801, "content": "<|reserved_token_163801|>", "single_word": false, "lstrip": false, "rstrip": false, "normalized": false, "special": true}, {"id": 163802, "content": "<|reserved_token_163802|>", "single_word": false, "lstrip": false, "rstrip": false, "normalized": false, "special": true}, {"id": 163803, "content": "<|reserved_token_163803|>", "single_word": false, "lstrip": false, "rstrip": false, "normalized": false, "special": true}, {"id": 163804, "content": "<|reserved_token_163804|>", "single_word": false, "lstrip": false, "rstrip": false, "normalized": false, "special": true}, {"id": 163805, "content": "<|reserved_token_163805|>", "single_word": false, "lstrip": false, "rstrip": false, "normalized": false, "special": true}, {"id": 163806, "content": "<|reserved_token_163806|>", "single_word": false, "lstrip": false, "rstrip": false, "normalized": false, "special": true}, {"id": 163807, "content": "<|reserved_token_163807|>", "single_word": false, "lstrip": false, "rstrip": false, "normalized": false, "special": true}, {"id": 163808, "content": "<|reserved_token_163808|>", "single_word": false, "lstrip": false, "rstrip": false, "normalized": false, "special": true}, {"id": 163809, "content": "<|reserved_token_163809|>", "single_word": false, "lstrip": false, "rstrip": false, "normalized": false, "special": true}, {"id": 163810, "content": "<|reserved_token_163810|>", "single_word": false, "lstrip": false, "rstrip": false, "normalized": false, "special": true}, {"id": 163811, "content": "<|reserved_token_163811|>", "single_word": false, "lstrip": false, "rstrip": false, "normalized": false, "special": true}, {"id": 163812, "content": "<|reserved_token_163812|>", "single_word": false, "lstrip": false, "rstrip": false, "normalized": false, "special": true}, {"id": 163813, "content": "<|reserved_token_163813|>", "single_word": false, "lstrip": false, "rstrip": false, "normalized": false, "special": true}, {"id": 163814, "content": "<|reserved_token_163814|>", "single_word": false, "lstrip": false, "rstrip": false, "normalized": false, "special": true}, {"id": 163815, "content": "<|reserved_token_163815|>", "single_word": false, "lstrip": false, "rstrip": false, "normalized": false, "special": true}, {"id": 163816, "content": "<|reserved_token_163816|>", "single_word": false, "lstrip": false, "rstrip": false, "normalized": false, "special": true}, {"id": 163817, "content": "<|reserved_token_163817|>", "single_word": false, "lstrip": false, "rstrip": false, "normalized": false, "special": true}, {"id": 163818, "content": "<|reserved_token_163818|>", "single_word": false, "lstrip": false, "rstrip": false, "normalized": false, "special": true}, {"id": 163819, "content": "<|reserved_token_163819|>", "single_word": false, "lstrip": false, "rstrip": false, "normalized": false, "special": true}, {"id": 163820, "content": "<|reserved_token_163820|>", "single_word": false, "lstrip": false, "rstrip": false, "normalized": false, "special": true}, {"id": 163821, "content": "<|reserved_token_163821|>", "single_word": false, "lstrip": false, "rstrip": false, "normalized": false, "special": true}, {"id": 163822, "content": "<|reserved_token_163822|>", "single_word": false, "lstrip": false, "rstrip": false, "normalized": false, "special": true}, {"id": 163823, "content": "<|reserved_token_163823|>", "single_word": false, "lstrip": false, "rstrip": false, "normalized": false, "special": true}, {"id": 163824, "content": "<|reserved_token_163824|>", "single_word": false, "lstrip": false, "rstrip": false, "normalized": false, "special": true}, {"id": 163825, "content": "<|reserved_token_163825|>", "single_word": false, "lstrip": false, "rstrip": false, "normalized": false, "special": true}, {"id": 163826, "content": "<|reserved_token_163826|>", "single_word": false, "lstrip": false, "rstrip": false, "normalized": false, "special": true}, {"id": 163827, "content": "<|reserved_token_163827|>", "single_word": false, "lstrip": false, "rstrip": false, "normalized": false, "special": true}, {"id": 163828, "content": "<|reserved_token_163828|>", "single_word": false, "lstrip": false, "rstrip": false, "normalized": false, "special": true}, {"id": 163829, "content": "<|reserved_token_163829|>", "single_word": false, "lstrip": false, "rstrip": false, "normalized": false, "special": true}, {"id": 163830, "content": "<|reserved_token_163830|>", "single_word": false, "lstrip": false, "rstrip": false, "normalized": false, "special": true}, {"id": 163831, "content": "<|reserved_token_163831|>", "single_word": false, "lstrip": false, "rstrip": false, "normalized": false, "special": true}, {"id": 163832, "content": "<|reserved_token_163832|>", "single_word": false, "lstrip": false, "rstrip": false, "normalized": false, "special": true}, {"id": 163833, "content": "<|reserved_token_163833|>", "single_word": false, "lstrip": false, "rstrip": false, "normalized": false, "special": true}, {"id": 163834, "content": "<|reserved_token_163834|>", "single_word": false, "lstrip": false, "rstrip": false, "normalized": false, "special": true}, {"id": 163835, "content": "<|reserved_token_163835|>", "single_word": false, "lstrip": false, "rstrip": false, "normalized": false, "special": true}, {"id": 163836, "content": "<|reserved_token_163836|>", "single_word": false, "lstrip": false, "rstrip": false, "normalized": false, "special": true}, {"id": 163837, "content": "<|reserved_token_163837|>", "single_word": false, "lstrip": false, "rstrip": false, "normalized": false, "special": true}, {"id": 163838, "content": "[UNK]", "single_word": false, "lstrip": false, "rstrip": false, "normalized": false, "special": true}, {"id": 163839, "content": "[PAD]", "single_word": false, "lstrip": false, "rstrip": false, "normalized": false, "special": true}], "normalizer": null, "pre_tokenizer": {"type": "Sequence", "pretokenizers": [{"type": "Split", "pattern": {"Regex": "[\\p{Han}]+|[^\\r\\n\\p{L}\\p{N}]?[\\p{Lu}\\p{Lt}\\p{Lm}\\p{Lo}\\p{M}&&[^\\p{Han}]]*[\\p{Ll}\\p{Lm}\\p{Lo}\\p{M}&&[^\\p{Han}]]+(?i:'s|'t|'re|'ve|'m|'ll|'d)?|[^\\r\\n\\p{L}\\p{N}]?[\\p{Lu}\\p{Lt}\\p{Lm}\\p{Lo}\\p{M}&&[^\\p{Han}]]+[\\p{Ll}\\p{Lm}\\p{Lo}\\p{M}&&[^\\p{Han}]]*(?i:'s|'t|'re|'ve|'m|'ll|'d)?|\\p{N}{1,3}| ?[^\\s\\p{L}\\p{N}]+[\\r\\n]*|\\s*[\\r\\n]+|\\s+(?!\\S)|\\s+"}, "behavior": "Isolated", "invert": false}, {"type": "ByteLevel", "add_prefix_space": false, "trim_offsets": true, "use_regex": false}]}, "post_processor": null, "decoder": {"type": "ByteLevel", "add_prefix_space": true, "trim_offsets": true, "use_regex": true}, "model": {"type": "BPE", "dropout": null, "unk_token": null, "continuing_subword_prefix": null, "end_of_word_suffix": null, "fuse_unk": false, "byte_fallback": false, "ignore_merges": true, "vocab": {"!": 0, "\"": 1, "#": 2, "$": 3, "%": 4, "&": 5, "'": 6, "(": 7, ")": 8, "*": 9, "+": 10, ",": 11, "-": 12, ".": 13, "/": 14, "0": 15, "1": 16, "2": 17, "3": 18, "4": 19, "5": 20, "6": 21, "7": 22, "8": 23, "9": 24, ":": 25, ";": 26, "<": 27, "=": 28, ">": 29, "?": 30, "@": 31, "A": 32, "B": 33, "C": 34, "D": 35, "E": 36, "F": 37, "G": 38, "H": 39, "I": 40, "J": 41, "K": 42, "L": 43, "M": 44, "N": 45, "O": 46, "P": 47, "Q": 48, "R": 49, "S": 50, "T": 51, "U": 52, "V": 53, "W": 54, "X": 55, "Y": 56, "Z": 57, "[": 58, "\\": 59, "]": 60, "^": 61, "_": 62, "`": 63, "a": 64, "b": 65, "c": 66, "d": 67, "e": 68, "f": 69, "g": 70, "h": 71, "i": 72, "j": 73, "k": 74, "l": 75, "m": 76, "n": 77, "o": 78, "p": 79, "q": 80, "r": 81, "s": 82, "t": 83, "u": 84, "v": 85, "w": 86, "x": 87, "y": 88, "z": 89, "{": 90, "|": 91, "}": 92, "~": 93, "¡": 94, "¢": 95, "£": 96, "¤": 97, "¥": 98, "¦": 99, "§": 100, "¨": 101, "©": 102, "ª": 103, "«": 104, "¬": 105, "®": 106, "¯": 107, "°": 108, "±": 109, "²": 110, "³": 111, "´": 112, "µ": 113, "¶": 114, "·": 115, "¸": 116, "¹": 117, "º": 118, "»": 119, "¼": 120, "½": 121, "¾": 122, "¿": 123, "À": 124, "Á": 125, "Â": 126, "Ã": 127, "Ä": 128, "Å": 129, "Æ": 130, "Ç": 131, "È": 132, "É": 133, "Ê": 134, "Ë": 135, "Ì": 136, "Í": 137, "Î": 138, "Ï": 139, "Ð": 140, "Ñ": 141, "Ò": 142, "Ó": 143, "Ô": 144, "Õ": 145, "Ö": 146, "×": 147, "Ø": 148, "Ù": 149, "Ú": 150, "Û": 151, "Ü": 152, "Ý": 153, "Þ": 154, "ß": 155, "à": 156, "á": 157, "â": 158, "ã": 159, "ä": 160, "å": 161, "æ": 162, "ç": 163, "è": 164, "é": 165, "ê": 166, "ë": 167, "ì": 168, "í": 169, "î": 170, "ï": 171, "ð": 172, "ñ": 173, "ò": 174, "ó": 175, "ô": 176, "õ": 177, "ö": 178, "÷": 179, "ø": 180, "ù": 181, "ú": 182, "û": 183, "ü": 184, "ý": 185, "þ": 186, "ÿ": 187, "Ā": 188, "ā": 189, "Ă": 190, "ă": 191, "Ą": 192, "ą": 193, "Ć": 194, "ć": 195, "Ĉ": 196, "ĉ": 197, "Ċ": 198, "ċ": 199, "Č": 200, "č": 201, "Ď": 202, "ď": 203, "Đ": 204, "đ": 205, "Ē": 206, "ē": 207, "Ĕ": 208, "ĕ": 209, "Ė": 210, "ė": 211, "Ę": 212, "ę": 213, "Ě": 214, "ě": 215, "Ĝ": 216, "ĝ": 217, "Ğ": 218, "ğ": 219, "Ġ": 220, "ġ": 221, "Ģ": 222, "ģ": 223, "Ĥ": 224, "ĥ": 225, "Ħ": 226, "ħ": 227, "Ĩ": 228, "ĩ": 229, "Ī": 230, "ī": 231, "Ĭ": 232, "ĭ": 233, "Į": 234, "į": 235, "İ": 236, "ı": 237, "Ĳ": 238, "ĳ": 239, "Ĵ": 240, "ĵ": 241, "Ķ": 242, "ķ": 243, "ĸ": 244, "Ĺ": 245, "ĺ": 246, "Ļ": 247, "ļ": 248, "Ľ": 249, "ľ": 250, "Ŀ": 251, "ŀ": 252, "Ł": 253, "ł": 254, "Ń": 255, "ĠĠ": 256, "ĠĠĠĠ": 257, "Ġt": 258, "in": 259, "ä¸": 260, "Ġa": 261, "er": 262, "on": 263, "re": 264, "he": 265, "at": 266, "çļ": 267, "or": 268, "çļĦ": 269, "st": 270, "en": 271, "ãĢ": 272, "äº": 273, "ĠĠĠ": 274, "Ġc": 275, "Ġthe": 276, "it": 277, "Ġs": 278, "an": 279, "ou": 280, "le": 281, "ĠĠĠĠĠĠĠĠ": 282, "al": 283, "Ġw": 284, "Ġf": 285, "Ġp": 286, "ar": 287, "ing": 288, "is": 289, "es": 290, "Ġb": 291, "ãĢĤ": 292, "æľ": 293, "ä»": 294, "ed": 295, "åı": 296, "ion": 297, "Ġo": 298, "nd": 299, "Ġm": 300, "ic": 301, "å¤": 302, ";Ċ": 303, "Ġd": 304, "et": 305, "Ġin": 306, "ro": 307, "Ġto": 308, "åħ": 309, "è¿": 310, "æĺ": 311, "ct": 312, "å®": 313, "as": 314, "ä½": 315, "Ġand": 316, "åĪ": 317, "Ġof": 318, "ent": 319, "ï¼": 320, "åľ": 321, "åĲ": 322, "el": 323, "Ġh": 324, "æĪ": 325, "Ġn": 326, "Ġ=": 327, "ä¹": 328, "om": 329, "æĺ¯": 330, "ä¸Ģ": 331, "Ġth": 332, "Ġre": 333, "il": 334, "çĶ": 335, "am": 336, "ĠĠĠĠĠĠĠ": 337, "id": 338, "å°": 339, "Ġl": 340, ".Ċ": 341, "ç»": 342, "ãĢģ": 343, "--": 344, "åĬ": 345, "æĹ": 346, "Ġ(": 347, "im": 348, "ä¸į": 349, "Ġe": 350, "è¯": 351, "ac": 352, "ĉĉ": 353, "se": 354, "ur": 355, "åĽ": 356, "ad": 357, "ut": 358, "åŃ": 359, "ol": 360, "if": 361, ");Ċ": 362, "æľī": 363, "Ġy": 364, "Ġg": 365, "ot": 366, "ve": 367, "ĠS": 368, "ig": 369, "ä¼": 370, "äºĨ": 371, "æĸ": 372, "æĿ": 373, "ĠI": 374, "åľ¨": 375, "å¹": 376, "ĠT": 377, "ï¼Į": 378, "åį": 379, "äºº": 380, "**": 381, "ĊĊ": 382, "è®": 383, "Ġ{": 384, "ay": 385, "od": 386, "Ġis": 387, "æī": 388, "Ġu": 389, "âĢ": 390, "ation": 391, "å¾": 392, "ag": 393, "ow": 394, "Ġfor": 395, "ĠC": 396, "Ġ*": 397, "Ġyou": 398, "ver": 399, "Ġst": 400, "ĠA": 401, "èĢ": 402, "å¸": 403, "ce": 404, "ul": 405, "éĩ": 406, "å·": 407, "//": 408, "ch": 409, "ate": 410, "ĥ½": 411, "å¥": 412, "Ġbe": 413, "Ġ\"": 414, "å¼": 415, "åĩ": 416, "th": 417, "Ġon": 418, "ly": 419, "ith": 420, "åĨ": 421, ",Ċ": 422, "æĪĳ": 423, "ab": 424, "pe": 425, "em": 426, "ĠĠĠĠĠĠĠĠĠĠĠ": 427, "åº": 428, "å¯": 429, "è¡": 430, "ri": 431, "éĢ": 432, "å¤§": 433, "ue": 434, "ä¸Ń": 435, "çĽ": 436, "Ġv": 437, ")Ċ": 438, "ä¸ª": 439, "Ġ{Ċ": 440, "ä¸º": 441, "ter": 442, "å¿": 443, "è¿Ļ": 444, "un": 445, "ir": 446, "ap": 447, "åĮ": 448, "è§": 449, "èµ": 450, "um": 451, "æĢ": 452, "æķ": 453, "Ġcon": 454, "oc": 455, "ĠM": 456, "Ġ}": 457, "æł": 458, "ĠP": 459, "æĬ": 460, "ist": 461, "čĊ": 462, "ä¸Ĭ": 463, "åĴ": 464, "00": 465, "è´": 466, "èĩ": 467, "çİ": 468, "us": 469, "ort": 470, "ex": 471, "Ġwith": 472, "Ġthat": 473, "æĹ¶": 474, "ä»¥": 475, "ers": 476, "åİ": 477, "¦ģ": 478, "ew": 479, "ç§": 480, "è¦ģ": 481, "op": 482, "Ġit": 483, "----": 484, "æŃ": 485, "Ġpro": 486, "éĹ": 487, "åĴĮ": 488, "çľ": 489, "nt": 490, "çĶŁ": 491, "éĿ": 492, "æ°": 493, "æ²": 494, "ht": 495, "ss": 496, "æĿ¥": 497, "ame": 498, "Ġal": 499, "æĥ": 500, "ä¼ļ": 501, "åĪ°": 502, "çī": 503, "ess": 504, "å½": 505, "å±": 506, "out": 507, "å°±": 508, "ĠB": 509, "ke": 510, "Ġde": 511, "åĳ": 512, "our": 513, "ub": 514, "æĶ": 515, "and": 516, "end": 517, "èĥ½": 518, "Ġan": 519, "ect": 520, "Ġr": 521, "ĠD": 522, "tr": 523, "Ġwh": 524, "æ³": 525, "çº": 526, "éĻ": 527, "Ġor": 528, "ore": 529, "ĠĠĠĠĠĠĠĠĠĠĠĠĠĠĠĠ": 530, "pl": 531, "å¹´": 532, "åı¯": 533, "ill": 534, "ĠĠĠĠĠ": 535, "æ¯": 536, "ĠF": 537, "ain": 538, "()": 539, "pt": 540, "ĠR": 541, "Ġ'": 542, "age": 543, "æŀ": 544, "å¦": 545, "Ġcom": 546, "ĠL": 547, "urn": 548, "åĽ½": 549, "ä»¬": 550, "Ġex": 551, "ä¹Ł": 552, "âĢĻ": 553, "Ġare": 554, "Ġ<": 555, "port": 556, "çĶ¨": 557, "ĠW": 558, "Ġas": 559, "ä¿": 560, "å¤ļ": 561, "æĦ": 562, "ment": 563, "åĩº": 564, "de": 565, "Ġthis": 566, "rom": 567, "æİ": 568, "->": 569, "å¯¹": 570, "==": 571, "èĩª": 572, "è½": 573, "qu": 574, "ĠN": 575, "åŃ¦": 576, "20": 577, "ure": 578, "æµ": 579, "os": 580, "Ġif": 581, "åıĳ": 582, "å®¶": 583, "iz": 584, "æĭ": 585, "able": 586, "åĵ": 587, "èĤ": 588, "ity": 589, "int": 590, "art": 591, "åĲİ": 592, "****": 593, "ction": 594, "ä»ĸ": 595, "ine": 596, "è¾": 597, "æĪĲ": 598, "ere": 599, "ile": 600, "est": 601, "ĠH": 602, "ĠG": 603, "ack": 604, "cl": 605, "ĠE": 606, "çŃ": 607, "turn": 608, "é¢": 609, "çĲ": 610, "ass": 611, "ä¸ĭ": 612, "ä½ľ": 613, "åŃĲ": 614, "åľ°": 615, "è¡Į": 616, "åī": 617, "get": 618, "con": 619, "ight": 620, "ld": 621, "è¿ĩ": 622, "Ġat": 623, "äºİ": 624, "æĮ": 625, "ave": 626, "ä¸ļ": 627, "å¥½": 628, "og": 629, "Ġtr": 630, "æ¬": 631, "ant": 632, "ä½ł": 633, "iv": 634, "Ġ-": 635, "per": 636, "åģ": 637, "éģ": 638, "all": 639, "éĥ½": 640, "éĺ": 641, "ĠO": 642, "ive": 643, "Ġhe": 644, "Ġwe": 645, "ĠThe": 646, "Ġse": 647, "ust": 648, "ff": 649, "Ġch": 650, "Ġyour": 651, "ind": 652, "æĸ¹": 653, "å¿ĥ": 654, "Ġle": 655, "çİ°": 656, "çĤ": 657, "Ġfrom": 658, "æ´": 659, "å°ı": 660, "æ¸": 661, "è¯´": 662, "ata": 663, "èĢĮ": 664, "\",": 665, "ult": 666, "Ġnot": 667, "å¾Ĺ": 668, "çĿ": 669, "ype": 670, "åĪĨ": 671, "ext": 672, "Ġby": 673, "ç«": 674, "ast": 675, "ies": 676, "are": 677, "ang": 678, "å¤©": 679, "::": 680, "Ġsh": 681, "ial": 682, "æ±": 683, "ç»ı": 684, "ä¹ĭ": 685, "com": 686, "ok": 687, "orm": 688, "ase": 689, "..": 690, "Ġcan": 691, "act": 692, "åĬ¨": 693, "ice": 694, "ode": 695, "éĿ¢": 696, "å¦Ĥ": 697, "é«": 698, "ip": 699, "è·": 700, "Ġ$": 701, "ĠĠĠĠĠĠĠĠĠĠĠĠĠĠĠ": 702, "ost": 703, "Ġ:": 704, "æĽ": 705, "è¿ĺ": 706, "é«ĺ": 707, "rou": 708, "ard": 709, "éķ": 710, "ä¾": 711, "Ġj": 712, "åŁ": 713, "Ġhave": 714, "Ġ+": 715, "å¼Ģ": 716, "å¾Ī": 717, "Ġk": 718, ">Ċ": 719, "ire": 720, "åĢ": 721, "çĲĨ": 722, "ç¬": 723, "å·¥": 724, "çŁ": 725, "Ġ//": 726, "av": 727, "ç®": 728, "å®ŀ": 729, "ç½": 730, "str": 731, "ak": 732, "ç¾": 733, "åĬĽ": 734, "Ġcl": 735, "ide": 736, "ime": 737, "éĤ": 738, "ĠÐ": 739, "ans": 740, "è°": 741, "æľĢ": 742, "Ġwas": 743, "çľĭ": 744, "Ġreturn": 745, "çĦ": 746, "Ġus": 747, "Ġwill": 748, "_t": 749, "åħ¬": 750, "--------": 751, "è¿Ľ": 752, "ork": 753, "Ġint": 754, "æīĢ": 755, "ä½ĵ": 756, "è¶": 757, "(\"": 758, "lic": 759, "åīį": 760, "ä¹Ī": 761, "æ³ķ": 762, "ä¸Ģä¸ª": 763, "ace": 764, "å®ļ": 765, "éĥ": 766, "In": 767, "çŃī": 768, "æĻ": 769, "é£": 770, "up": 771, "çĿĢ": 772, "lo": 773, "åĲĮ": 774, "åħ¨": 775, "æĸ°": 776, ":Ċ": 777, "æĹ¥": 778, "çĤ¹": 779, "Ð°": 780, "ign": 781, "ib": 782, "åħ¶": 783, "æ²¡": 784, "èĢħ": 785, "å¸Ĥ": 786, "one": 787, "äºĭ": 788, "åĿ": 789, "èĬ": 790, "çĪ": 791, "ell": 792, "Ġ[": 793, "ĠU": 794, "10": 795, "ord": 796, "ä¸İ": 797, "##": 798, "Ġall": 799, "éĩĮ": 800, "çĦ¶": 801, "201": 802, "ud": 803, "æĥħ": 804, "æľ¬": 805, "èī": 806, "ject": 807, "ions": 808, "ould": 809, "res": 810, "Ġ}Ċ": 811, "éķ¿": 812, "æĢ§": 813, "Ġnew": 814, "éĹ´": 815, "Ġpl": 816, "æı": 817, "Ġad": 818, "elf": 819, "é¡": 820, "éļ": 821, "ize": 822, "Ġres": 823, "âĢĻs": 824, "Ġen": 825, "ite": 826, "cc": 827, "Ġab": 828, "éĤ£": 829, "ail": 830, "ple": 831, "æĪĳä»¬": 832, "åĽł": 833, "å§": 834, "äº§": 835, "ä¸»": 836, "ath": 837, "éĽ": 838, "åİ»": 839, "import": 840, "Ġ&": 841, "ĉĉĉĉ": 842, "ç¨": 843, "ont": 844, "åĲĪ": 845, "å½ĵ": 846, "éģĵ": 847, "åĮĸ": 848, "ount": 849, ";ĊĊ": 850, "æľº": 851, "æ¶": 852, "ç§į": 853, "éĥ¨": 854, "ä½Ĩ": 855, "ï¼ģ": 856, ".s": 857, "éĩį": 858, "Ġdo": 859, "ER": 860, "åĵģ": 861, "èµ·": 862, "å·±": 863, "ï¼Ł": 864, "åĬł": 865, "æį": 866, "pro": 867, "ock": 868, "alue": 869, "ry": 870, "æĹł": 871, "St": 872, "ome": 873, "ublic": 874, "form": 875, "ance": 876, "ated": 877, "=\"": 878, "çĻ": 879, "ï¼Ľ": 880, "çĹ": 881, "æ°´": 882, "æŀľ": 883, "ĠâĢ": 884, "åħ³": 885, "ong": 886, "ç©": 887, "èĩªå·±": 888, "ĠTh": 889, "IN": 890, "Ġne": 891, "æľĪ": 892, "uct": 893, "æĥ³": 894, "æł·": 895, "}Ċ": 896, "_s": 897, "ake": 898, "ç¤": 899, "ps": 900, "ĠJ": 901, "Re": 902, "erv": 903, "),": 904, "åĨħ": 905, "ook": 906, "hen": 907, "æĸĩ": 908, "éĶ": 909, "åľº": 910, "Ġcont": 911, "ç¾İ": 912, "que": 913, "ert": 914, "èģ": 915, "ge": 916, "åº¦": 917, "çķ": 918, "æģ": 919, "19": 920, "æĦı": 921, "Ġget": 922, "åı¯ä»¥": 923, "Ġhas": 924, ");ĊĊ": 925, "Ġ/": 926, "put": 927, "********": 928, "äºĽ": 929, "ll": 930, "æĽ´": 931, "ĠV": 932, "Ġout": 933, "å»": 934, "éĢļ": 935, "ild": 936, "æŁ": 937, "ä¸ī": 938, "å¸¸": 939, "çĸ": 940, "æ¯Ķ": 941, "ress": 942, "ally": 943, "fer": 944, "',": 945, "Ð¾": 946, "ç¬¬": 947, "éľ": 948, "å¢": 949, "Ġ|": 950, "è½¦": 951, "ä»İ": 952, "å¤ĸ": 953, "====": 954, "}ĊĊ": 955, "ary": 956, "èĥ": 957, "à¤": 958, "ach": 959, "èº": 960, "ber": 961, "ull": 962, "çĽ¸": 963, "èĦ": 964, "åħ¥": 965, "Ġ*/": 966, "æīĭ": 967, "åģļ": 968, "ich": 969, "Ġgo": 970, "Ġso": 971, "æĺİ": 972, "éħ": 973, "ç³": 974, "å°Ĩ": 975, "éĩı": 976, "ç¥": 977, "ä½į": 978, "Ġup": 979, "æ¬¡": 980, "Ġap": 981, "Ġstr": 982, "ear": 983, "è¢": 984, "ia": 985, "åĸ": 986, "çĥ": 987, "so": 988, "åıª": 989, "ory": 990, "ens": 991, "ition": 992, "</": 993, "ĠIn": 994, "åºĶ": 995, "Ġbut": 996, "Ġar": 997, "aram": 998, "æĦŁ": 999, ";čĊ": 1000, "èĭ": 1001, "ç²": 1002, "ck": 1003, "éĴ": 1004, "èĲ": 1005, "æ´»": 1006, "ther": 1007, "The": 1008, "æıĲ": 1009, "ie": 1010, "èµĦ": 1011, "oid": 1012, "åķ": 1013, "çī©": 1014, "æľŁ": 1015, "èº«": 1016, "ents": 1017, "ft": 1018, "Ġme": 1019, "Ġun": 1020, "Ġ}ĊĊ": 1021, "ence": 1022, "Ġ@": 1023, "ree": 1024, "__": 1025, "Ðµ": 1026, "te": 1027, "{Ċ": 1028, "è®©": 1029, "æ·": 1030, "ob": 1031, "Ġi": 1032, "æ²¡æľī": 1033, "ON": 1034, "æŃ¤": 1035, "))": 1036, "åĮº": 1037, "ç´": 1038, "aw": 1039, "ĠK": 1040, "ption": 1041, "12": 1042, "ool": 1043, "æŃ£": 1044, "çĶµ": 1045, "RE": 1046, "ä¿Ŀ": 1047, "'s": 1048, "tring": 1049, "gh": 1050, "çģ": 1051, "_p": 1052, "row": 1053, "Ġsu": 1054, "çł": 1055, "ous": 1056, "\"Ċ": 1057, "ç±": 1058, "åıĬ": 1059, "çĽ®": 1060, "å¹³": 1061, "çŁ¥": 1062, "Ø§": 1063, "very": 1064, "Ġim": 1065, "éĩĳ": 1066, "èĢģ": 1067, "å¹¶": 1068, "pon": 1069, "Ġmore": 1070, "æķ°": 1071, "åĲį": 1072, "èĪ": 1073, "èį": 1074, "ç¼": 1075, "err": 1076, "ations": 1077, "ep": 1078, "å»º": 1079, "iew": 1080, "æĪĸ": 1081, "Ð½": 1082, ").": 1083, "åĪ¶": 1084, "unction": 1085, "ĉĉĉ": 1086, "ä¿¡": 1087, "Ġour": 1088, "å±ķ": 1089, "åĬ¡": 1090, "æķĻ": 1091, "é¦": 1092, "pr": 1093, "();Ċ": 1094, "_m": 1095, "ink": 1096, "è¡¨": 1097, "own": 1098, "ax": 1099, "gr": 1100, "Ġone": 1101, "è¢«": 1102, "ose": 1103, "å®ī": 1104, "_c": 1105, "Ġmy": 1106, "ãģ": 1107, "å¥³": 1108, "ark": 1109, "Ġtheir": 1110, "è®¾": 1111, "ç®¡": 1112, "æĤ": 1113, "Ð¸": 1114, "å£": 1115, "ä¸¤": 1116, "æ°Ķ": 1117, "ors": 1118, "å·²": 1119, "ç»Ļ": 1120, "Ġ.": 1121, "Ġper": 1122, "ÑĢ": 1123, "ings": 1124, "ound": 1125, "éĹ®": 1126, "Ġ*/Ċ": 1127, "æ¡": 1128, "Ġthey": 1129, "ST": 1130, "å°±æĺ¯": 1131, "å¥¹": 1132, "Ġwork": 1133, "vent": 1134, "ick": 1135, "äºĮ": 1136, "\",Ċ": 1137, "ä½¿": 1138, "vers": 1139, "ĠĠĠĠĠĠĠĠĠĠĠĠĠĠĠĠĠĠĠ": 1140, "ĠY": 1141, "çī¹": 1142, "æ°ĳ": 1143, "les": 1144, "Ġsc": 1145, "ource": 1146, "åĪ©": 1147, "ove": 1148, "_d": 1149, ".get": 1150, "Ġ==": 1151, "name": 1152, "ÑĤ": 1153, "æ»": 1154, "Ġwhich": 1155, "çľŁ": 1156, "Ġdis": 1157, "ç³»": 1158, "Ġman": 1159, "vel": 1160, "ç¡": 1161, "é¢ĺ": 1162, "è§£": 1163, "åĳĺ": 1164, "ä»£": 1165, "def": 1166, "ãĢĭ": 1167, "Ġpr": 1168, "Ġtime": 1169, "ãĢĬ": 1170, ".c": 1171, "Ġpublic": 1172, "ç¨ĭ": 1173, "rib": 1174, "åĽŀ": 1175, "ç½ĳ": 1176, "('": 1177, "Ġany": 1178, "Ġset": 1179, "è·¯": 1180, "ç¦": 1181, "å¼ı": 1182, "ef": 1183, "åįģ": 1184, "åĪ«": 1185, ".m": 1186, "au": 1187, "èī²": 1188, "é©": 1189, "é»": 1190, "éª": 1191, "AT": 1192, "her": 1193, "led": 1194, "reat": 1195, "å°ĳ": 1196, "è£": 1197, "_f": 1198, "ä¸ŃåĽ½": 1199, "Ġpre": 1200, "åİŁ": 1201, "32": 1202, "lect": 1203, "éĵ": 1204, "app": 1205, "quest": 1206, "âĢĿ": 1207, "200": 1208, "ec": 1209, "add": 1210, "ç»ĵ": 1211, "atic": 1212, "Ġdef": 1213, "Ġ#": 1214, "Ġabout": 1215, "set": 1216, "ĠĠĠĠĠĠĠĠĠ": 1217, "åħĥ": 1218, "Ġli": 1219, "Ġconst": 1220, "æ¯ı": 1221, "Ġ_": 1222, "å¤´": 1223, "pec": 1224, "Ex": 1225, "æİ¥": 1226, "riv": 1227, "11": 1228, "yst": 1229, "ĠSt": 1230, "æĬĬ": 1231, "æīĵ": 1232, "è®¡": 1233, "èĻ": 1234, "åıĺ": 1235, "Ġel": 1236, "åıĹ": 1237, "Ġcol": 1238, "Ġadd": 1239, "é£İ": 1240, "áĢ": 1241, "ical": 1242, "åı¸": 1243, "ä»Ģ": 1244, "Pro": 1245, "çĪ±": 1246, "fo": 1247, "Ġcomp": 1248, "äº¤": 1249, "ä»·": 1250, "return": 1251, "ener": 1252, "ays": 1253, "EN": 1254, "_C": 1255, "ient": 1256, "å¼º": 1257, "Ġpart": 1258, "æĶ¾": 1259, "¥¿": 1260, "ov": 1261, "æľį": 1262, "Name": 1263, "ä»Ģä¹Ī": 1264, "atch": 1265, "è´¨": 1266, "ug": 1267, "Ġ`": 1268, "å¤Ħ": 1269, "çĽ´": 1270, "Ġsa": 1271, "Ġ\\": 1272, "åŀ": 1273, "ix": 1274, "åĲĳ": 1275, "ty": 1276, "éľĢ": 1277, "tern": 1278, "æľ¯": 1279, "Ġalso": 1280, "ĉif": 1281, "Ġ!": 1282, "Ġdes": 1283, "Ġsp": 1284, "16": 1285, "AR": 1286, "å¸Ī": 1287, "Ġx": 1288, "\":": 1289, "çº¿": 1290, "eth": 1291, "OR": 1292, "Id": 1293, "Ġte": 1294, "åĨį": 1295, "Ñģ": 1296, "è¥¿": 1297, "å·¥ä½ľ": 1298, "æĮģ": 1299, "ude": 1300, "åŃ©": 1301, "fig": 1302, "ystem": 1303, ".com": 1304, "oint": 1305, "old": 1306, "Type": 1307, "15": 1308, "iel": 1309, "éĹ¨": 1310, "io": 1311, "Ġover": 1312, "enc": 1313, "Ġro": 1314, "ange": 1315, "://": 1316, "åı£": 1317, "Ġ=>": 1318, "key": 1319, "åŁº": 1320, "ely": 1321, "Ġwhen": 1322, ".p": 1323, "èĩ³": 1324, "æµģ": 1325, "æµ·": 1326, "åįķ": 1327, "Ġuse": 1328, "Ġqu": 1329, "ä¸ľ": 1330, "åĢĻ": 1331, "low": 1332, "nder": 1333, "AL": 1334, "irst": 1335, "----------------": 1336, "çĶ±": 1337, "this": 1338, "_b": 1339, "åĲĦ": 1340, "30": 1341, "Ġself": 1342, "_S": 1343, "ĠIt": 1344, "æĶ¶": 1345, "è¿Ļä¸ª": 1346, "ual": 1347, "æīį": 1348, "Th": 1349, "hed": 1350, "rr": 1351, "we": 1352, "è±": 1353, "åıĪ": 1354, "ä»¶": 1355, "Ġother": 1356, "è¯Ŀ": 1357, "bject": 1358, "ä¸ĩ": 1359, "å²": 1360, "Ġbu": 1361, "Ġneed": 1362, "Ġclass": 1363, "Ġwho": 1364, "Con": 1365, "éĿŀ": 1366, "æį®": 1367, "ĠCh": 1368, "æł¼": 1369, "essage": 1370, "å±±": 1371, "æĢ»": 1372, "ield": 1373, "æĬĢ": 1374, "ä»»": 1375, "ç§ĳ": 1376, "val": 1377, "æ®": 1378, "ĠThis": 1379, "IT": 1380, "ater": 1381, "æ±Ĥ": 1382, ".t": 1383, "cess": 1384, "arg": 1385, "åħĪ": 1386, "_l": 1387, "æĶ¿": 1388, "Ġyear": 1389, "Ð»": 1390, "è¿Ĳ": 1391, "éĢī": 1392, "alse": 1393, "ä¸ĵ": 1394, "ä¸ĸ": 1395, "read": 1396, "Ġthem": 1397, "String": 1398, "Ġsome": 1399, "çĹħ": 1400, "èħ": 1401, "ãĢĤ\"": 1402, "å®Į": 1403, "åĮ»": 1404, "åħ¬åı¸": 1405, "ID": 1406, "clude": 1407, "å¯¼": 1408, "ict": 1409, "å¸¦": 1410, "åķĨ": 1411, "self": 1412, "åĽłä¸º": 1413, "æĹ¶åĢĻ": 1414, "pect": 1415, "éĻ¢": 1416, "Cont": 1417, "ä»Ĭ": 1418, "ne": 1419, "ĠĊ": 1420, "é¥": 1421, "æ¸ħ": 1422, "è°ĥ": 1423, ".h": 1424, "Ġâ": 1425, "è®¤": 1426, "è®°": 1427, "18": 1428, "heck": 1429, "Ġcomm": 1430, "çĻ½": 1431, "èİ": 1432, "èĢĥ": 1433, "tt": 1434, "æ¼": 1435, "èĬĤ": 1436, "sh": 1437, "Ġass": 1438, "ven": 1439, "èĬ±": 1440, "åĦ": 1441, "è§ī": 1442, "LE": 1443, "ish": 1444, "odel": 1445, "Ġag": 1446, "èĮ": 1447, "å®¹": 1448, "å¦Ĥæŀľ": 1449, "////": 1450, "æķĪ": 1451, "æº": 1452, "25": 1453, "reate": 1454, "è§ģ": 1455, "urre": 1456, "æĹ¶éĹ´": 1457, "éĢł": 1458, "Ġthere": 1459, "ä»ĸä»¬": 1460, "ra": 1461, "ific": 1462, "Ġfe": 1463, "åĩł": 1464, "çļĦäºº": 1465, "åĶ": 1466, "sc": 1467, "Ġoff": 1468, "ä¹¦": 1469, "round": 1470, "æłĩ": 1471, "å½±": 1472, "æĬ¥": 1473, "anc": 1474, "åĦ¿": 1475, "000": 1476, "ç«ĭ": 1477, "å½¢": 1478, "Ġbeen": 1479, "ä¼ł": 1480, ".ĊĊ": 1481, "åħī": 1482, "inal": 1483, "Ġvar": 1484, "Ġkn": 1485, "ãĥ": 1486, "ng": 1487, "eng": 1488, "htt": 1489, "åĽĽ": 1490, "Ġam": 1491, "çĭ": 1492, "åŃ©åŃĲ": 1493, "Ġhis": 1494, "Ġno": 1495, "è§Ħ": 1496, "SE": 1497, "ribut": 1498, "lock": 1499, "ator": 1500, "ĠWe": 1501, "æ²»": 1502, "ning": 1503, "å®ĥ": 1504, "çħ": 1505, "ms": 1506, "Ġacc": 1507, "ç»Ł": 1508, "ervice": 1509, "ç²¾": 1510, "oy": 1511, "cont": 1512, "ç©º": 1513, "è¯¥": 1514, "æķ´": 1515, "Ġem": 1516, "Ġlike": 1517, "åŁİ": 1518, "æĮĩ": 1519, "èµ°": 1520, "Ġvoid": 1521, "ade": 1522, "iss": 1523, "å¿«": 1524, "ates": 1525, "Ġind": 1526, "Ġfunction": 1527, "æ³¨": 1528, "ise": 1529, "Ġname": 1530, "æĪ¿": 1531, "rit": 1532, "à¦": 1533, "eg": 1534, "è´¹": 1535, "æĺĵ": 1536, "åĪĽ": 1537, "åŀĭ": 1538, "igh": 1539, "åĲĥ": 1540, "Ġthan": 1541, "åıĭ": 1542, ")ĊĊ": 1543, "Ġdata": 1544, "Ġmay": 1545, "ãĤ": 1546, "Ġprov": 1547, "å¤ª": 1548, "ç±»": 1549, "dd": 1550, "ä¸įæĺ¯": 1551, "åħ·": 1552, "è¾ĥ": 1553, "ä½ķ": 1554, "å¢ŀ": 1555, "è¾¾": 1556, "Ġpe": 1557, "_P": 1558, "ense": 1559, "ä¼ģ": 1560, "ç¥ŀ": 1561, "quire": 1562, "Ġelse": 1563, "ble": 1564, "Ġend": 1565, "çº§": 1566, "åįĹ": 1567, "ĠØ": 1568, "æ£": 1569, "100": 1570, "umber": 1571, "ser": 1572, "Ġwhat": 1573, "Com": 1574, "ices": 1575, "Ġinto": 1576, "çĬ": 1577, "ç¤¾": 1578, "Ġjust": 1579, "ault": 1580, "Ġinter": 1581, "åĬŁ": 1582, "éļ¾": 1583, "AN": 1584, "è¯ģ": 1585, "red": 1586, "of": 1587, "ä¹ł": 1588, "nc": 1589, "Ġwould": 1590, "),Ċ": 1591, "Ġop": 1592, "è¿ĳ": 1593, "è¶Ĭ": 1594, "ments": 1595, "ash": 1596, "ç¤º": 1597, "æ¶Ī": 1598, "Ġrec": 1599, "ç»Ħ": 1600, "åı°": 1601, "Res": 1602, "lp": 1603, "****************": 1604, "fter": 1605, "List": 1606, "è§Ĥ": 1607, "sp": 1608, "Ġonly": 1609, "éĹ®é¢ĺ": 1610, "line": 1611, "========": 1612, "é£Ł": 1613, "...": 1614, "å§ĭ": 1615, "ĉreturn": 1616, "èģĶ": 1617, "roup": 1618, "è¿Ļæł·": 1619, "çķĮ": 1620, "åıĸ": 1621, "æħ": 1622, "æĶ¹": 1623, "æ·±": 1624, "é¡¹": 1625, "14": 1626, "der": 1627, "Ġmake": 1628, "ied": 1629, "æĪĺ": 1630, "Ġreg": 1631, "Ġhow": 1632, "è¿Ľè¡Į": 1633, "åıĳå±ķ": 1634, "à´": 1635, "Ġback": 1636, "åĮĹ": 1637, "Ġunder": 1638, "âĢĻt": 1639, "æĬķ": 1640, "]Ċ": 1641, "als": 1642, "50": 1643, "urrent": 1644, "è§Ĩ": 1645, "Ġwere": 1646, "UL": 1647, "rivate": 1648, "æ¢": 1649, "Ġfile": 1650, "_D": 1651, "pos": 1652, "Ġtrue": 1653, ".f": 1654, "èĤ¡": 1655, "####": 1656, "èĤ²": 1657, "åĳ¨": 1658, "ĠĠĠĠĠĠ": 1659, "ner": 1660, "æĿ¡": 1661, "æĳ": 1662, "Ch": 1663, "ä¹Ĳ": 1664, "ys": 1665, "SS": 1666, "æĪ·": 1667, "ph": 1668, "ä¸Ķ": 1669, ".l": 1670, "wo": 1671, ".d": 1672, "è£ħ": 1673, "ĠâĢľ": 1674, "ful": 1675, "æŃ¥": 1676, "Ġ>": 1677, "æ¸¸": 1678, "du": 1679, "åĥ": 1680, "æīĢä»¥": 1681, "Ġits": 1682, "Data": 1683, "ature": 1684, "_T": 1685, "âĢľ": 1686, "å¤ĩ": 1687, "Ġhad": 1688, "ton": 1689, "åıį": 1690, "ox": 1691, "æģ¯": 1692, "å¤į": 1693, "over": 1694, "its": 1695, "çĶŁæ´»": 1696, "è½¬": 1697, "!Ċ": 1698, "Ð¾Ð": 1699, "/*": 1700, "Ġfirst": 1701, "ç¡®": 1702, "åħ»": 1703, "Ġnull": 1704, "ask": 1705, "ä¼ģä¸ļ": 1706, "éŁ": 1707, "çĥŃ": 1708, "ÙĦ": 1709, "ames": 1710, "çľ¼": 1711, "arch": 1712, "æİ¨": 1713, "åĩĨ": 1714, "duct": 1715, "èı": 1716, "plic": 1717, "13": 1718, "å¾Īå¤ļ": 1719, "_M": 1720, "ting": 1721, "è®º": 1722, "çĲĥ": 1723, "ues": 1724, "ocal": 1725, "Ġgr": 1726, "ible": 1727, "éĺŁ": 1728, "å¹¿": 1729, "ank": 1730, "ä½Ĩæĺ¯": 1731, "ian": 1732, "åĮħ": 1733, "Ġvalue": 1734, "rough": 1735, "Ġspec": 1736, "çª": 1737, "å®¢": 1738, "æĢĿ": 1739, "ious": 1740, "ery": 1741, "äºĶ": 1742, "Ġact": 1743, "It": 1744, "Cl": 1745, "èĲ¥": 1746, "ĠĠĠĠĠĠĠĠĠĠĠĠĠĠĠĠĠĠĠĠĠĠĠĠĠĠĠĠĠĠĠĠ": 1747, "ule": 1748, "ople": 1749, "åĪĻ": 1750, "æł¡": 1751, "\");Ċ": 1752, "to": 1753, "_n": 1754, "ä¾¿": 1755, "å·²ç»ı": 1756, "Ġsup": 1757, "å¸Ĥåľº": 1758, "ä¼ĺ": 1759, "å¼ł": 1760, "æ¨": 1761, "Ġent": 1762, "Ġbr": 1763, "``": 1764, "Ġshould": 1765, "',Ċ": 1766, "å®Ŀ": 1767, "åı¯èĥ½": 1768, "'t": 1769, "åĬŀ": 1770, "ause": 1771, "ating": 1772, "ek": 1773, "éĽĨ": 1774, "é¢Ĩ": 1775, "è¿ĺæĺ¯": 1776, "éľĢè¦ģ": 1777, "_in": 1778, "çłĶ": 1779, "Ġthen": 1780, "æļ": 1781, "-b": 1782, "Ġ%": 1783, "ä½İ": 1784, "çı": 1785, "ages": 1786, "CT": 1787, "));Ċ": 1788, "ader": 1789, "çİ¯": 1790, "az": 1791, "åĨ³": 1792, "åĥı": 1793, "åį³": 1794, "å¿ħ": 1795, "ility": 1796, "air": 1797, "Ġtype": 1798, "Ġlook": 1799, "æĸĻ": 1800, "](": 1801, "cri": 1802, "64": 1803, "Ġstart": 1804, "Ġbet": 1805, "åĢ¼": 1806, "ities": 1807, "include": 1808, "åįİ": 1809, "17": 1810, "å¹²": 1811, "Ġtest": 1812, "ics": 1813, "(Ċ": 1814, "Ġher": 1815, "æºĲ": 1816, "AD": 1817, "Ġsub": 1818, "param": 1819, "?Ċ": 1820, "fr": 1821, "è¯Ĩ": 1822, "çīĩ": 1823, "Ġz": 1824, "Ġinst": 1825, "èĩªå·±çļĦ": 1826, "struct": 1827, "Ġrem": 1828, "ĠRe": 1829, "ream": 1830, "åĸľ": 1831, "åıĤ": 1832, "Ġhelp": 1833, "æł¹": 1834, "å¨": 1835, "æ»¡": 1836, "nect": 1837, "çİ°åľ¨": 1838, "oth": 1839, "ood": 1840, "éĺ²": 1841, "è¾¹": 1842, "Ġ&&": 1843, "erm": 1844, "åħ±": 1845, "ception": 1846, "äººçļĦ": 1847, "Ġerr": 1848, "ann": 1849, "Ġlist": 1850, "Ġthrough": 1851, "çº¢": 1852, "å¸ĥ": 1853, "pp": 1854, "åŃĹ": 1855, "æĢģ": 1856, "ä¹Łæĺ¯": 1857, "Ġph": 1858, "Ġ:=": 1859, "æľĽ": 1860, "ale": 1861, "æĲ": 1862, "()Ċ": 1863, "å¼ķ": 1864, "Ġ!=": 1865, "å¾Ģ": 1866, "Ġmost": 1867, "ĠâĢĵ": 1868, "ä½ı": 1869, "æĶ¯": 1870, "Ġac": 1871, "Ġfalse": 1872, "Ġpeople": 1873, "æ¹": 1874, "ier": 1875, "éĻ¤": 1876, "To": 1877, "work": 1878, "Ġdif": 1879, "Ġknow": 1880, "ç»Ń": 1881, "éħį": 1882, "IC": 1883, "ĠYou": 1884, "_id": 1885, "æľª": 1886, "any": 1887, "åĻ": 1888, "Ġorg": 1889, "Ġtrans": 1890, "ts": 1891, "ĠIf": 1892, "çļĦæĹ¶åĢĻ": 1893, "é©¬": 1894, "ĠPro": 1895, "olor": 1896, "px": 1897, "åį´": 1898, "atus": 1899, "Ġrel": 1900, "è®¸": 1901, "çĶ·": 1902, "24": 1903, "åĨµ": 1904, "æĺ¾": 1905, "mer": 1906, "åĽ¾": 1907, "éĢŁ": 1908, "Ðº": 1909, "\\x": 1910, "Ġval": 1911, ".S": 1912, "Ġwant": 1913, "Ġaut": 1914, "reak": 1915, "Ġwell": 1916, "cre": 1917, "çİĭ": 1918, "ative": 1919, "ç´ł": 1920, "å©": 1921, "Ġevery": 1922, "è¯ķ": 1923, "éĥ½æĺ¯": 1924, "irect": 1925, "ç¦»": 1926, "https": 1927, "ethod": 1928, "Tr": 1929, "æŁ¥": 1930, "ower": 1931, "Ñĥ": 1932, "è±¡": 1933, "Ġresult": 1934, "æ¬¢": 1935, "çļĦä¸Ģ": 1936, "opy": 1937, "æľįåĬ¡": 1938, "åĳ½": 1939, "ä¾Ľ": 1940, "Ã©": 1941, "ular": 1942, "const": 1943, "å±Ģ": 1944, "clud": 1945, "Ġthese": 1946, "åĳĬ": 1947, ".b": 1948, "ÙĨ": 1949, "åĬ¿": 1950, "_F": 1951, "date": 1952, "']": 1953, "ĠĠĠĠĠĠĠĠĠĠĠĠĠĠĠĠĠĠĠĠĠĠĠ": 1954, "void": 1955, "çŁ¥éģĵ": 1956, "å¤±": 1957, "è¶³": 1958, "Get": 1959, "ache": 1960, "_re": 1961, "è¨": 1962, "ÙĪ": 1963, "ä¹°": 1964, "Ġid": 1965, "Ġcons": 1966, "åŃĺ": 1967, "Ñĭ": 1968, "ength": 1969, "èĩ´": 1970, "formation": 1971, "ustom": 1972, "class": 1973, "Ø±": 1974, "æĴ": 1975, "aut": 1976, ":\"": 1977, "æ®µ": 1978, "éļı": 1979, "ample": 1980, "åĬ©": 1981, "Ġchar": 1982, "è¡Ģ": 1983, "åı·": 1984, "ily": 1985, "è¶ħ": 1986, "å¦Ī": 1987, "Value": 1988, "éĢĤ": 1989, "day": 1990, "çħ§": 1991, "ĠUn": 1992, "Ġcase": 1993, "ĠCom": 1994, "çĸĹ": 1995, "RO": 1996, "é¦ĸ": 1997, "ider": 1998, "ĠQ": 1999, "å¼Ģå§ĭ": 2000, "wn": 2001, "çĮ": 2002, "und": 2003, "æĿĥ": 2004, "Ġatt": 2005, "view": 2006, "arget": 2007, "Ġwor": 2008, "Ġwhere": 2009, "lean": 2010, "å¤§å®¶": 2011, "çľģ": 2012, "é¾": 2013, "ä¼Ĺ": 2014, "son": 2015, "abel": 2016, "æĬ¤": 2017, "oss": 2018, "rap": 2019, ",\"": 2020, "Ġlong": 2021, "èµĽ": 2022, "erson": 2023, "è¨Ģ": 2024, "ey": 2025, "fore": 2026, "æĸŃ": 2027, "ough": 2028, "Ġright": 2029, "éªĮ": 2030, "æ²¹": 2031, "Ġread": 2032, "string": 2033, "define": 2034, "value": 2035, "åĨĽ": 2036, "Ùħ": 2037, "æŀģ": 2038, "åĽ¢": 2039, "Ġused": 2040, "Ġ*Ċ": 2041, "å¢ĥ": 2042, "å¤Ł": 2043, "çĻ¾": 2044, "indow": 2045, "ik": 2046, "yp": 2047, "åįĩ": 2048, "uff": 2049, "Ġsee": 2050, "çļĦæĺ¯": 2051, "Ġmin": 2052, "åĪĩ": 2053, "åİĨ": 2054, "trans": 2055, "ç§°": 2056, "play": 2057, "ç¢": 2058, "))Ċ": 2059, "çģ«": 2060, "éĢļè¿ĩ": 2061, "æİĴ": 2062, "ç®¡çĲĨ": 2063, "åĪ°äºĨ": 2064, "ÛĮ": 2065, "è¯·": 2066, "Ġaw": 2067, "è¿ŀ": 2068, "Ġtwo": 2069, "iness": 2070, "æĹ©": 2071, "**Ċ": 2072, "äº§åĵģ": 2073, "äº²": 2074, "gram": 2075, "çİĩ": 2076, "icense": 2077, "Ġ</": 2078, "../": 2079, "Ġsm": 2080, "è¿ľ": 2081, "åĻ¨": 2082, "ased": 2083, "å¥½çļĦ": 2084, "idth": 2085, "Ġfind": 2086, "ç»Ĩ": 2087, "ets": 2088, "oin": 2089, "bs": 2090, "data": 2091, "ET": 2092, "à¥": 2093, "Ġexper": 2094, "éĿŀå¸¸": 2095, "éĴ±": 2096, "40": 2097, "Ġvery": 2098, "åĳ¢": 2099, "æĿĳ": 2100, "\">": 2101, "AM": 2102, "Ġfl": 2103, "uch": 2104, "['": 2105, "Ġimport": 2106, "éĻħ": 2107, "the": 2108, "var": 2109, "Ġrequire": 2110, "ee": 2111, "ument": 2112, "ref": 2113, "lection": 2114, "è¯Ń": 2115, "ml": 2116, "æŀĦ": 2117, "ĠHe": 2118, "éĺ³": 2119, "cond": 2120, "-c": 2121, "ç¬¬ä¸Ģ": 2122, "Ġbl": 2123, "ä»ħ": 2124, "ĉp": 2125, "æ¬¾": 2126, "åĵį": 2127, "(f": 2128, "#include": 2129, "è½»": 2130, "è®®": 2131, "().": 2132, "Ġmany": 2133, "ç½®": 2134, ");čĊ": 2135, "lement": 2136, "Ġprivate": 2137, "ä¹ī": 2138, "amp": 2139, "yle": 2140, "rol": 2141, "ED": 2142, "å¾®": 2143, "èį¯": 2144, "(n": 2145, "ç®Ĺ": 2146, "ç©¶": 2147, "olog": 2148, "æ¨¡": 2149, "uild": 2150, "è¿ĻäºĽ": 2151, "æ¡Ī": 2152, "ify": 2153, "åĭ": 2154, "ç«Ļ": 2155, "ä¸įèĥ½": 2156, "ES": 2157, "æĬĢæľ¯": 2158, "æĢİ": 2159, "åħĭ": 2160, "èİ·": 2161, "Ġbus": 2162, "ern": 2163, "Set": 2164, "ah": 2165, "rite": 2166, "Ġeven": 2167, "Ġmem": 2168, "ç±³": 2169, "æ¸©": 2170, "Ġafter": 2171, "ä½¿çĶ¨": 2172, "ION": 2173, "FF": 2174, "æĸ½": 2175, "ray": 2176, "Ġsim": 2177, "ä¿®": 2178, "-s": 2179, "br": 2180, "ponse": 2181, "é»Ħ": 2182, "æµİ": 2183, "ç»´": 2184, "UT": 2185, "çĬ¶": 2186, "Ġshe": 2187, "velop": 2188, "Ġway": 2189, "ody": 2190, "itt": 2191, "Ġhand": 2192, "ç»Ī": 2193, "ife": 2194, "Ġstud": 2195, "load": 2196, "æĻ¯": 2197, "å·ŀ": 2198, "çļ®": 2199, "ĠString": 2200, "We": 2201, "Ġbec": 2202, "ma": 2203, "Ġstring": 2204, "60": 2205, "Ġgood": 2206, "åģ¥": 2207, "ession": 2208, "AC": 2209, "çº¦": 2210, "éĻĲ": 2211, ".n": 2212, "press": 2213, "åºķ": 2214, "Ġnow": 2215, "Ġ/*": 2216, "type": 2217, "_st": 2218, "ä¸ĢäºĽ": 2219, "åĲ¬": 2220, "Object": 2221, "rc": 2222, "èĳ": 2223, "ines": 2224, "Ġfr": 2225, "ç§¯": 2226, "å£°": 2227, "oo": 2228, "Ġ||": 2229, "åŃ¦çĶŁ": 2230, "ym": 2231, "ĠEx": 2232, "Ñĸ": 2233, "Ġplay": 2234, "æĭ©": 2235, "Ġapp": 2236, "ins": 2237, "perty": 2238, "å¾·": 2239, "ä¸Ģå®ļ": 2240, "èĲ½": 2241, "Ġcould": 2242, "ä¸ĸçķĮ": 2243, "olut": 2244, "Ġdet": 2245, "åĳ³": 2246, "æĸ¯": 2247, "ĠCon": 2248, "æ¥": 2249, "éĶĢ": 2250, "IL": 2251, "Ġform": 2252, "æİ§": 2253, "Ġser": 2254, "version": 2255, "ait": 2256, "ww": 2257, "å¤§çļĦ": 2258, "Ġinclud": 2259, "æĺŁ": 2260, "å£«": 2261, "é¢Ħ": 2262, "æī¾": 2263, "#define": 2264, "cept": 2265, "Ġsuch": 2266, "æĥħåĨµ": 2267, "ULL": 2268, "ware": 2269, "22": 2270, "back": 2271, "åł": 2272, "ccess": 2273, "file": 2274, "oad": 2275, "Ð´": 2276, "right": 2277, "åĽ½å®¶": 2278, "åİĭ": 2279, "action": 2280, "(m": 2281, "rror": 2282, "åĨĻ": 2283, "Ġrun": 2284, "Ġyears": 2285, "Ġsize": 2286, "],": 2287, "è´£": 2288, "ience": 2289, "éĿĴ": 2290, "Ġdown": 2291, "uring": 2292, "Ġhigh": 2293, "Ġinformation": 2294, "ational": 2295, "Ġdiffer": 2296, ".A": 2297, "čĊčĊ": 2298, "80": 2299, "Ġstatic": 2300, "ffect": 2301, "].": 2302, "ement": 2303, "æ±Ł": 2304, "vice": 2305, "Ġbest": 2306, "igned": 2307, "æķĻèĤ²": 2308, "ç¤¾ä¼ļ": 2309, "éĤ£ä¹Ī": 2310, "comm": 2311, "æ¼Ķ": 2312, "ĠTr": 2313, "Ġgreat": 2314, ".j": 2315, "éħĴ": 2316, "å¯¹äºİ": 2317, "Ġmod": 2318, "ush": 2319, "éĢīæĭ©": 2320, "_B": 2321, "unc": 2322, "å¿µ": 2323, "ä»½": 2324, "åĨľ": 2325, "Ġdec": 2326, "(s": 2327, "å¡": 2328, "($": 2329, "éĩįè¦ģ": 2330, "ä¾Ŀ": 2331, "ward": 2332, "äº¬": 2333, "é¸": 2334, "Ġdon": 2335, "hes": 2336, "èģĮ": 2337, "éĩĩ": 2338, "å±ŀ": 2339, ");": 2340, "æ¯į": 2341, "è·Ł": 2342, "Ġnumber": 2343, "çīĮ": 2344, "åº·": 2345, "min": 2346, "ars": 2347, "other": 2348, "åĲĮæĹ¶": 2349, "ote": 2350, "ren": 2351, "ç¦ı": 2352, "De": 2353, "Ġdoes": 2354, "Ġkey": 2355, "++": 2356, "lease": 2357, "ç®Ģ": 2358, "LO": 2359, "):Ċ": 2360, "ized": 2361, "Ġdist": 2362, "MA": 2363, "æĭī": 2364, "arn": 2365, "let": 2366, "ocation": 2367, "arent": 2368, "ollow": 2369, "anag": 2370, "çŁ³": 2371, "Ġfil": 2372, "(t": 2373, "aking": 2374, ".set": 2375, "ason": 2376, "à¸": 2377, "åıĮ": 2378, "_N": 2379, "Ġco": 2380, "åĽŃ": 2381, "éŁ³": 2382, "å§Ķ": 2383, "raw": 2384, "èŀ": 2385, "åĲ§": 2386, "åºĹ": 2387, "Ġav": 2388, "Ġusing": 2389, "Ġcall": 2390, "Ġlet": 2391, "éĶĻ": 2392, "Ġmark": 2393, "æĪĲä¸º": 2394, "Ġvis": 2395, "Ġwhile": 2396, "Ġhere": 2397, "çķĻ": 2398, ".g": 2399, "æĿ¿": 2400, "æĸ¹éĿ¢": 2401, "æķħ": 2402, "Ġsystem": 2403, "resent": 2404, "ä¼¤": 2405, "Ġmon": 2406, "];Ċ": 2407, "è¯»": 2408, "Ġown": 2409, "å±Ĥ": 2410, "åįĬ": 2411, "é¦Ļ": 2412, "éĻ©": 2413, "Ġed": 2414, "ä¸ŃçļĦ": 2415, "Ġbecause": 2416, "æľĭ": 2417, "Ġbefore": 2418, "View": 2419, "ç»ıæµİ": 2420, "çĨ": 2421, "Ġday": 2422, "\\n": 2423, "Ġshow": 2424, "ĠWh": 2425, "OD": 2426, "ateg": 2427, "äºĨä¸Ģ": 2428, "lob": 2429, "æĮī": 2430, "code": 2431, "Ġ--": 2432, "èĭ±": 2433, "æ´»åĬ¨": 2434, "File": 2435, "ouse": 2436, "ten": 2437, "ptions": 2438, "æĿĲ": 2439, "è¯Ħ": 2440, "Ġdel": 2441, "ited": 2442, "æŀĹ": 2443, "for": 2444, "Ġhome": 2445, "Ġprocess": 2446, "Ġsupport": 2447, "IS": 2448, "(p": 2449, "ger": 2450, "æĵ": 2451, "å°Ķ": 2452, "æĪĳçļĦ": 2453, "åŃ¦ä¹ł": 2454, "Ġmuch": 2455, "ined": 2456, "less": 2457, "Ġeach": 2458, "æŃ»": 2459, "Ġ<<": 2460, "è®²": 2461, "è¿ĺæľī": 2462, "Ġperson": 2463, "ĠĠĠĠĠĠĠĠĠĠĠĠĠ": 2464, "å¯Į": 2465, "23": 2466, "Im": 2467, "Ġsk": 2468, "Ġstate": 2469, "Ġline": 2470, "ä¸įä¼ļ": 2471, "Info": 2472, "åĪĴ": 2473, "Ġcount": 2474, "alth": 2475, "åĩºçİ°": 2476, "è¿Ļç§į": 2477, "Ġbel": 2478, "æĺ¯ä¸Ģ": 2479, "oot": 2480, "æľĭåıĭ": 2481, "user": 2482, "util": 2483, "æ£Ģ": 2484, "åı¤": 2485, "////////": 2486, "Ġ?": 2487, "å°½": 2488, "è¯¾": 2489, "Ð¼": 2490, "Ġpol": 2491, "è´Ń": 2492, "Ġtake": 2493, "Ġ)": 2494, "åħħ": 2495, "å½±åĵį": 2496, "Ġcomple": 2497, "order": 2498, "ç«ł": 2499, "èīº": 2500, "Ġproduct": 2501, "Ġins": 2502, "alk": 2503, "li": 2504, "ç¾¤": 2505, "Ġlast": 2506, "ç¿": 2507, "roll": 2508, "æĬķèµĦ": 2509, "Ġbusiness": 2510, "Ġpos": 2511, "This": 2512, "Ġfinal": 2513, "ister": 2514, "itle": 2515, "Ġ///": 2516, "ä¸¥": 2517, "èĻ½": 2518, "ava": 2519, "Text": 2520, "ä¸»è¦ģ": 2521, "ces": 2522, "Item": 2523, "State": 2524, "Ġcurrent": 2525, "\"ãĢĤ": 2526, "Ġext": 2527, "åĩı": 2528, "ĉc": 2529, "Ġcar": 2530, "Ġsaid": 2531, "åĪĿ": 2532, "ÙĬ": 2533, "att": 2534, "è´¢": 2535, "çĶ»": 2536, "loat": 2537, "åħį": 2538, "è§Ĵ": 2539, "èĪ¬": 2540, "mp": 2541, ".C": 2542, "ä¾ĭ": 2543, "Error": 2544, "Un": 2545, "Ġprovid": 2546, "æĻº": 2547, "opt": 2548, "-t": 2549, "Ġgener": 2550, "ailable": 2551, "çĽĬ": 2552, "åľŁ": 2553, "gs": 2554, "å±ħ": 2555, "ä¸įè¦ģ": 2556, "face": 2557, "ĠAn": 2558, "chn": 2559, "Ġprogram": 2560, "PE": 2561, "uf": 2562, "AS": 2563, "å²ģ": 2564, "ĠSh": 2565, "Ġtop": 2566, "ually": 2567, "çłĶç©¶": 2568, "ĠØ§": 2569, "Ġbuild": 2570, "Ġfam": 2571, "By": 2572, "ler": 2573, "åıĳçİ°": 2574, "ĠDe": 2575, "uc": 2576, "ä¸įåĲĮ": 2577, "[i": 2578, "ality": 2579, "æĿ¥çļĦ": 2580, "Ġfin": 2581, "Ġdevelop": 2582, "UR": 2583, "åĸĦ": 2584, "ouble": 2585, "OT": 2586, "Param": 2587, "Ġ},Ċ": 2588, "(c": 2589, "è®¾è®¡": 2590, "Ġke": 2591, "å®³": 2592, "Ġ(!": 2593, "æĢİä¹Ī": 2594, "ĠLicense": 2595, "åĿļ": 2596, "Sc": 2597, "Ġcheck": 2598, "åĪĹ": 2599, "ä½łçļĦ": 2600, "å®īåħ¨": 2601, "Ġbeing": 2602, "éĻį": 2603, "æĻļ": 2604, "é»ĳ": 2605, "Key": 2606, "Ġgu": 2607, "åĸľæ¬¢": 2608, "Ġob": 2609, "IM": 2610, "div": 2611, "ince": 2612, "Ġsur": 2613, "Exception": 2614, "Ġmade": 2615, "Ind": 2616, "Int": 2617, "ags": 2618, "reg": 2619, "item": 2620, "Ġserv": 2621, "fl": 2622, "arm": 2623, "ä¸ĬçļĦ": 2624, "æĺ¥": 2625, "äºī": 2626, "Ġdid": 2627, "Ġchild": 2628, "ends": 2629, "èĮĥ": 2630, "é²": 2631, "ats": 2632, "Ġmed": 2633, "ä½ľä¸º": 2634, "åĿĩ": 2635, "rem": 2636, "ä¹ĭåĲİ": 2637, "source": 2638, "Ð²": 2639, "-m": 2640, "ĠAnd": 2641, "å¸®": 2642, "_w": 2643, "Ġtry": 2644, "Ġfollow": 2645, "rt": 2646, "æŃ¢": 2647, "ï¼ļ": 2648, "ĠFor": 2649, "ures": 2650, "çĽĺ": 2651, "ĠX": 2652, "olum": 2653, "\";Ċ": 2654, "èŀį": 2655, "Ġbreak": 2656, "æ¯Ķè¾ĥ": 2657, "æ¿": 2658, "empl": 2659, "è´Ł": 2660, "å¾ħ": 2661, "æŁĲ": 2662, "é¡¹çĽ®": 2663, "é¾Ļ": 2664, "ains": 2665, "Ġpost": 2666, "url": 2667, "ĠAl": 2668, "ared": 2669, "åİ¿": 2670, "Ġcal": 2671, "hip": 2672, "åħ¶å®ŀ": 2673, "èĥ½åĬĽ": 2674, "æĸĩåĮĸ": 2675, "print": 2676, "èµ·æĿ¥": 2677, "åĲĹ": 2678, "Ġpoint": 2679, "af": 2680, "çİ©": 2681, "åįĥ": 2682, "Ġfound": 2683, "åı²": 2684, "æĿİ": 2685, "Ġfree": 2686, "Ġthose": 2687, "28": 2688, "åĲ¦": 2689, "\")Ċ": 2690, "enter": 2691, "èĢĮä¸Ķ": 2692, "çĭ¬": 2693, "Ġdi": 2694, "Ġworld": 2695, "ç¾İåĽ½": 2696, "ope": 2697, "org": 2698, "IG": 2699, "_h": 2700, "çĵ": 2701, "çĪ¶": 2702, "ç³»ç»Ł": 2703, "Ġthink": 2704, "æ¤": 2705, "PI": 2706, "Ġcor": 2707, "Ġcustom": 2708, "åĽ´": 2709, "Ġpass": 2710, "lation": 2711, "çıŃ": 2712, "æĪĸèĢħ": 2713, "21": 2714, "Map": 2715, "Ñı": 2716, "AB": 2717, "Ġart": 2718, "Test": 2719, "çł´": 2720, "Ġsom": 2721, "åħ´": 2722, "ä»¥åıĬ": 2723, "åĺ": 2724, "imes": 2725, "Ġdifferent": 2726, "æĽ¾": 2727, "27": 2728, "static": 2729, "Pl": 2730, "ever": 2731, "He": 2732, "æī¿": 2733, "ween": 2734, "æ²³": 2735, "åĩ»": 2736, "Ġsame": 2737, "chool": 2738, "ĠNULL": 2739, "åĵª": 2740, "--------------------------------": 2741, "Ġuser": 2742, "éĥ¨åĪĨ": 2743, "è¦ģæ±Ĥ": 2744, "ght": 2745, "Ġmust": 2746, "ĠCl": 2747, "å®¤": 2748, "oard": 2749, "pace": 2750, "UN": 2751, "On": 2752, "Ġagain": 2753, "use": 2754, "çŃĸ": 2755, "è¡¥": 2756, "ails": 2757, "ape": 2758, "æĸ¹æ³ķ": 2759, "eter": 2760, "ä¿¡æģ¯": 2761, "èĥ½å¤Ł": 2762, "ants": 2763, "':": 2764, "index": 2765, "åħŃ": 2766, "ified": 2767, "åĲ¸": 2768, "äºĳ": 2769, "());Ċ": 2770, "Ġexpect": 2771, "vert": 2772, "æĤ£": 2773, "å¸Į": 2774, "Ġproject": 2775, "(),": 2776, "Ġmain": 2777, "message": 2778, "land": 2779, "Time": 2780, "aining": 2781, "'Ċ": 2782, "æ¿Ģ": 2783, "æĦ¿": 2784, "ä»ĸçļĦ": 2785, "ives": 2786, "._": 2787, "90": 2788, "ä¸ºäºĨ": 2789, "akes": 2790, "Ġ__": 2791, "ithub": 2792, "çªģ": 2793, "AG": 2794, "ists": 2795, "\"\"": 2796, "Sh": 2797, "ING": 2798, "åŁŁ": 2799, "ather": 2800, "éĢģ": 2801, "èĤī": 2802, "éĵ¶": 2803, "ä¸ªäºº": 2804, "Ġweek": 2805, "td": 2806, "ns": 2807, "äºĴ": 2808, "å·®": 2809, "ways": 2810, "èĽ": 2811, "ä¸Ģæł·": 2812, "Øª": 2813, "æĸ¹å¼ı": 2814, "çŁŃ": 2815, "For": 2816, "rray": 2817, "Ġopen": 2818, "Ġcreate": 2819, "å¿Ĺ": 2820, "26": 2821, "ential": 2822, "umm": 2823, "çĹĽ": 2824, "Ġoper": 2825, "\")": 2826, "itor": 2827, "åºĶè¯¥": 2828, "æµĭ": 2829, "æĻ®": 2830, "Ġobject": 2831, "åįļ": 2832, "lear": 2833, "æ¦": 2834, "aj": 2835, "ĉĉĉĉĉ": 2836, "è¿Ļä¸Ģ": 2837, "ott": 2838, "yn": 2839, "Ġsign": 2840, "par": 2841, "åĶ®": 2842, "Ġallow": 2843, "Ġ{čĊ": 2844, "_r": 2845, "Ġdisc": 2846, "ync": 2847, "è§īå¾Ĺ": 2848, "Ġeas": 2849, "(b": 2850, "Ġlife": 2851, "ecut": 2852, "åħļ": 2853, "ç»Ŀ": 2854, "å®ĺ": 2855, "ond": 2856, "Ġcr": 2857, "tect": 2858, "utton": 2859, "ç»ĩ": 2860, "config": 2861, "å¤§åŃ¦": 2862, "åħ«": 2863, "wh": 2864, "come": 2865, "hor": 2866, "bers": 2867, "Ġservice": 2868, "Se": 2869, "æıĲä¾Ľ": 2870, "Â·": 2871, "æīĢæľī": 2872, "HE": 2873, "åı¦": 2874, "åºľ": 2875, "((": 2876, "ayer": 2877, "Ġavailable": 2878, "be": 2879, "Wh": 2880, "ackage": 2881, "éĨ": 2882, "ç¬ĳ": 2883, "æĹħ": 2884, "ftware": 2885, "åįı": 2886, "/m": 2887, "äºļ": 2888, "Ġrep": 2889, "log": 2890, "ä¸ĵä¸ļ": 2891, "ç¼ĸ": 2892, "è´§": 2893, "ä½Ľ": 2894, "ribute": 2895, "ĠIN": 2896, "Ġnext": 2897, "_E": 2898, "45": 2899, "ground": 2900, "Ġstruct": 2901, "å»ºè®¾": 2902, "Ġlog": 2903, "çĽ®åīį": 2904, "Ġret": 2905, "word": 2906, "åŃ£": 2907, "_A": 2908, "æ½": 2909, "ä¸Ģèµ·": 2910, "çĽĳ": 2911, "èıľ": 2912, "Ġtext": 2913, "èĻ½çĦ¶": 2914, "_type": 2915, "ished": 2916, "Ġla": 2917, "ENT": 2918, "ization": 2919, "åĲ«": 2920, "ference": 2921, "Config": 2922, "åĤ": 2923, "ä¸¾": 2924, "ocument": 2925, "-f": 2926, "OM": 2927, "_name": 2928, "(self": 2929, "é¡»": 2930, "å¾ĭ": 2931, "Ġwithout": 2932, "ä¸ĢçĽ´": 2933, "35": 2934, "äººåĳĺ": 2935, "äº¿": 2936, "åĪļ": 2937, "ride": 2938, "æį¢": 2939, "Ġevent": 2940, "ric": 2941, "å©ļ": 2942, "ness": 2943, "ç¬¬äºĮ": 2944, "ĠÎ": 2945, "\\\\": 2946, "etwork": 2947, "199": 2948, "Ġ->": 2949, "[]": 2950, "Ġbetween": 2951, "ç´§": 2952, "è¿Ļæĺ¯": 2953, "Ġplace": 2954, "Ġaround": 2955, "Ġorder": 2956, "Ġboth": 2957, "================": 2958, "Context": 2959, "_IN": 2960, "äº«": 2961, "æħ¢": 2962, "ä¸įè¿ĩ": 2963, "ĠNew": 2964, "Ġà¤": 2965, "vis": 2966, "è®¤ä¸º": 2967, "æĭ¿": 2968, "æł¸": 2969, "ĠZ": 2970, "Ġlocal": 2971, "Ġdesign": 2972, "ĠSystem": 2973, "urs": 2974, "202": 2975, "not": 2976, "èĤ¤": 2977, "Ġcare": 2978, "Ġbook": 2979, "anager": 2980, "cription": 2981, "èī¯": 2982, "çľĭåĪ°": 2983, "åģľ": 2984, "unity": 2985, "-d": 2986, "é¼": 2987, "ponent": 2988, "åº§": 2989, "},Ċ": 2990, "éģĩ": 2991, "çĶļ": 2992, "Ġitem": 2993, "ternal": 2994, "çİ¯å¢ĥ": 2995, "Node": 2996, "Ġreally": 2997, "Ġmet": 2998, "reen": 2999, "åıĳçĶŁ": 3000, "Ġdep": 3001, "Event": 3002, "Ġrequest": 3003, "99": 3004, "èĭ¦": 3005, "Ġcour": 3006, "ret": 3007, "ä¹ħ": 3008, "Ġwrit": 3009, "ä»ĭ": 3010, "Ġrece": 3011, "Ġparam": 3012, "ĠSo": 3013, "Ġcontin": 3014, "uffer": 3015, "ina": 3016, "%D": 3017, ").Ċ": 3018, "Ġreal": 3019, "ĠRes": 3020, "search": 3021, "Path": 3022, "ump": 3023, "plication": 3024, "off": 3025, "tract": 3026, "Ġteam": 3027, "oci": 3028, "With": 3029, "dev": 3030, "-p": 3031, "ĠAs": 3032, "stance": 3033, "_O": 3034, "els": 3035, "Add": 3036, "Ġassert": 3037, "é£ŀ": 3038, "Ġsl": 3039, "(&": 3040, "iable": 3041, "Ġve": 3042, "aster": 3043, "æĭĽ": 3044, "åķĬ": 3045, "_RE": 3046, "åĿĹ": 3047, "èŃ": 3048, "Ġdirect": 3049, "En": 3050, "Ġdr": 3051, "enu": 3052, "æ²»çĸĹ": 3053, "ross": 3054, "åħ¶ä»ĸ": 3055, "US": 3056, "å¯Ĩ": 3057, "Ġ);Ċ": 3058, "åģĩ": 3059, "ä¸ĢèĪ¬": 3060, "_L": 3061, "èĢģå¸Ī": 3062, "åģ¥åº·": 3063, "è¡£": 3064, "Ġoffer": 3065, "An": 3066, "æķ°æį®": 3067, "ters": 3068, "As": 3069, "ç»§": 3070, "Index": 3071, "70": 3072, "Ġdefault": 3073, "ivers": 3074, "éŃ": 3075, ".st": 3076, "init": 3077, "test": 3078, "æĪı": 3079, "ç¥¨": 3080, "33": 3081, "uration": 3082, "äººæ°ĳ": 3083, "æĭħ": 3084, "éĿĻ": 3085, "Ġpat": 3086, "Ġpar": 3087, "ä¼¼": 3088, "èĴ": 3089, "ital": 3090, "ced": 3091, "çīĪ": 3092, "å¤«": 3093, "èĥĮ": 3094, "Ġstill": 3095, "åĪ»": 3096, "è¿ĩç¨ĭ": 3097, "Ġstd": 3098, "èĹ": 3099, "Ġ,": 3100, "àµ": 3101, "åŁİå¸Ĥ": 3102, "Ġhim": 3103, "_g": 3104, "ĠPl": 3105, ".w": 3106, "########": 3107, "ä»Ĭå¤©": 3108, "Ġview": 3109, "ç©¿": 3110, "If": 3111, "error": 3112, "vir": 3113, "29": 3114, "ä¸Ńå¿ĥ": 3115, "pty": 3116, "by": 3117, "):": 3118, "_e": 3119, "Or": 3120, "Size": 3121, "ology": 3122, "ĠAll": 3123, "Ø¯": 3124, "Ġmodel": 3125, "åıªæľī": 3126, "Ġcap": 3127, "_V": 3128, "åĮ»éĻ¢": 3129, "çī¹åĪ«": 3130, "è¡Įä¸ļ": 3131, "è¯ī": 3132, "å¦Ĥä½ķ": 3133, "èĨ": 3134, "à²": 3135, "å·¦": 3136, "å¥Ĺ": 3137, "æ´Ĺ": 3138, "Ġtechn": 3139, "Ġest": 3140, "Ġmethod": 3141, "Ġì": 3142, "Ġtoo": 3143, "éĴŁ": 3144, "bl": 3145, "emp": 3146, "éº": 3147, "Ġposs": 3148, ".add": 3149, "æľĢåĲİ": 3150, "åį¡": 3151, "Ġev": 3152, "ploy": 3153, "ctor": 3154, "oken": 3155, "æľ¨": 3156, "åŃ¦æł¡": 3157, "';Ċ": 3158, "Ġ\\Ċ": 3159, "ä¸´": 3160, "wit": 3161, "(d": 3162, "_H": 3163, "èŃ¦": 3164, "å¸ĮæľĽ": 3165, "å¥ĩ": 3166, "********************************": 3167, "å½ķ": 3168, "cript": 3169, "æĦŁè§ī": 3170, "ux": 3171, "åı³": 3172, "ved": 3173, "oolean": 3174, "ä¹İ": 3175, "åıªæĺ¯": 3176, "ĠSe": 3177, "aving": 3178, "æĤ¨": 3179, "ĠAr": 3180, "Ġerror": 3181, "ç½Ĺ": 3182, "book": 3183, ".D": 3184, "me": 3185, "raph": 3186, "Ã¡": 3187, "Request": 3188, "Ġprint": 3189, "Ġappro": 3190, "lobal": 3191, "Ġhtt": 3192, "åı«": 3193, "åĽłæŃ¤": 3194, "å¤ľ": 3195, "Ġlevel": 3196, ".M": 3197, "æĿ¾": 3198, "Ġaccess": 3199, "ä½ľçĶ¨": 3200, "translation": 3201, "Ġpay": 3202, ".e": 3203, "Ġnum": 3204, "ift": 3205, "Ġfield": 3206, "ç»Ħç»ĩ": 3207, "CH": 3208, "ç²ī": 3209, "OL": 3210, "åį°": 3211, "èĦĳ": 3212, "æ¥¼": 3213, "ĉb": 3214, "å·´": 3215, "github": 3216, "ai": 3217, "Form": 3218, "æ³¨æĦı": 3219, "çļĦäºĭ": 3220, "çķ¥": 3221, "IP": 3222, "çĹĩ": 3223, "ç»ĥ": 3224, "åĩĢ": 3225, "ency": 3226, "èĩªçĦ¶": 3227, "æŃ¦": 3228, "Is": 3229, "ission": 3230, "Ġhapp": 3231, "å¹´çļĦ": 3232, "å®¹æĺĵ": 3233, "rop": 3234, "Ġpartic": 3235, "Ġref": 3236, "ypes": 3237, "Ġconnect": 3238, "Ġversion": 3239, "Ġalways": 3240, "n't": 3241, "Ġlot": 3242, "ases": 3243, "Ġcho": 3244, "ons": 3245, "çºª": 3246, "Ġbeg": 3247, ".P": 3248, "ä¸ĥ": 3249, "çĦ¶åĲİ": 3250, "```": 3251, "åį«": 3252, "Ġcode": 3253, "Ġlead": 3254, "çĶŁäº§": 3255, "áĥ": 3256, "imit": 3257, "Ġide": 3258, "éķĩ": 3259, "éĵģ": 3260, "Ġgoing": 3261, "åħ³ç³»": 3262, "Class": 3263, "emplate": 3264, "Ġfew": 3265, "Ġplan": 3266, "ainer": 3267, "ï¼ī": 3268, "time": 3269, "Ġlove": 3270, "Ġmat": 3271, "æł¹æį®": 3272, "åī§": 3273, "list": 3274, "ittle": 3275, "odule": 3276, "¤Ĳ": 3277, "Ġcolor": 3278, "äº®": 3279, "ĠSc": 3280, "ui": 3281, "ĠOn": 3282, "Service": 3283, "æľīä¸Ģ": 3284, "çĶ±äºİ": 3285, "='": 3286, "Ġsure": 3287, "Ġbool": 3288, "æĶ¿åºľ": 3289, "ĠIs": 3290, "éĺ¿": 3291, "ï¼Ī": 3292, "æĿ¥è¯´": 3293, "è¿ĻéĩĮ": 3294, "çĽ¸åħ³": 3295, "Ġtable": 3296, "Ġ/**Ċ": 3297, "Ġpur": 3298, "æ³¢": 3299, "Ġfeature": 3300, "è¡¨ç¤º": 3301, "iving": 3302, "Ġfact": 3303, "åľ°æĸ¹": 3304, "ä¸°": 3305, "();ĊĊ": 3306, "Ġsmall": 3307, "Ġcompany": 3308, "æĵį": 3309, "åŁ¹": 3310, "åĨħå®¹": 3311, "ä½Ļ": 3312, "ingle": 3313, "æ¹ĸ": 3314, "ä¹Łä¸į": 3315, "ä»·æł¼": 3316, "ety": 3317, "><": 3318, "tings": 3319, "ender": 3320, "æī¹": 3321, "ember": 3322, "Ġinv": 3323, "Ġprof": 3324, "æī§": 3325, "Ġmarket": 3326, "Ġsecond": 3327, "çģµ": 3328, "_R": 3329, "ä¸½": 3330, "ique": 3331, "thing": 3332, "é±": 3333, "erg": 3334, "Ġmonth": 3335, "çĶļèĩ³": 3336, "å¹¸": 3337, "}{": 3338, "èĮ¶": 3339, "ilter": 3340, "using": 3341, "CE": 3342, "ä»ĺ": 3343, "æ¯Ľ": 3344, "äºĨè§£": 3345, "åŁºæľ¬": 3346, "Ġet": 3347, "oh": 3348, "Ġiss": 3349, "ĠThey": 3350, "iven": 3351, "ural": 3352, "æĹı": 3353, "Ġinit": 3354, "Ġequ": 3355, "å¼Ĥ": 3356, "èĭ¥": 3357, "01": 3358, "ç«¯": 3359, "åįĸ": 3360, "Ġperform": 3361, "åĿĲ": 3362, "rist": 3363, "çīĽ": 3364, "ĠĠĠĠĠĠĠĠĠĠĠĠĠĠĠĠĠĠĠĠĠĠĠĠĠĠĠ": 3365, "lete": 3366, "vest": 3367, "ries": 3368, "åħ¶ä¸Ń": 3369, "é±¼": 3370, "Ġorgan": 3371, "åĮĹäº¬": 3372, "md": 3373, "ename": 3374, "ĠGet": 3375, "Ġfull": 3376, "ç»ľ": 3377, "\\\"": 3378, "isc": 3379, "é¡º": 3380, "aterial": 3381, "ä¹¡": 3382, "uss": 3383, "Of": 3384, "Ġduring": 3385, "åĨ·": 3386, "ium": 3387, "Ġfun": 3388, "olution": 3389, "ãĢĲ": 3390, "Ġhead": 3391, "Ġ)Ċ": 3392, "åı¥": 3393, "ÑĮ": 3394, "/s": 3395, "æ±½": 3396, "ĠBut": 3397, "ä»¤": 3398, "ãĢĳ": 3399, "ç¼º": 3400, "esc": 3401, "ior": 3402, "stand": 3403, "roid": 3404, "uck": 3405, "Ġhealth": 3406, "iled": 3407, "man": 3408, "å¥ĸ": 3409, "Ġold": 3410, "Ġincluding": 3411, "iter": 3412, "åºŃ": 3413, "Ð°Ð½": 3414, "èįī": 3415, "Ġkeep": 3416, "Ġmax": 3417, "Ġexperience": 3418, "_data": 3419, "ÑģÑĤ": 3420, "æłĳ": 3421, "æķĪæŀľ": 3422, "Ent": 3423, "æ¯Ĵ": 3424, "æĭį": 3425, "Ar": 3426, "ident": 3427, "ero": 3428, "Ġstand": 3429, "idd": 3430, "Ġwater": 3431, "')": 3432, "All": 3433, "Ġfeel": 3434, "æŃĮ": 3435, "inter": 3436, "è¿½": 3437, "ients": 3438, "æĪĲåĬŁ": 3439, "Ġmanag": 3440, "é¢Ŀ": 3441, "âĢĶ": 3442, "Ġ((": 3443, "å½©": 3444, "Ġpage": 3445, "ç¯": 3446, "36": 3447, "ç¨³": 3448, "ĠThere": 3449, "uction": 3450, "ending": 3451, "Ġprovide": 3452, "arge": 3453, "æŀĲ": 3454, "Ġeffect": 3455, "Ġthings": 3456, "Hand": 3457, "æįŁ": 3458, "valid": 3459, "è´µ": 3460, "oun": 3461, "itions": 3462, "Ġpath": 3463, "Ġthrow": 3464, "Ġ**": 3465, "cent": 3466, "å®ŀçİ°": 3467, "Ġput": 3468, "],Ċ": 3469, "angu": 3470, "Ø³": 3471, "èĦ¸": 3472, "è¿Ļæł·çļĦ": 3473, "itional": 3474, "æ¢¦": 3475, "åĽ½éĻħ": 3476, "ĠFr": 3477, "åħ·æľī": 3478, "User": 3479, "ayout": 3480, "æĩ": 3481, "Over": 3482, "Ġprodu": 3483, "Ġ+=": 3484, "aces": 3485, "åĵģçīĮ": 3486, "é¤Ĳ": 3487, "med": 3488, "result": 3489, "Ġconfig": 3490, "Equ": 3491, "api": 3492, "Ġtarget": 3493, "ä¸Ģæ¬¡": 3494, "Field": 3495, "è®Ń": 3496, "ething": 3497, "ä¸Ģä¸ĭ": 3498, "Ġthree": 3499, "èº«ä½ĵ": 3500, "text": 3501, "èĵ": 3502, "æĢķ": 3503, "ibr": 3504, "éĽ¨": 3505, "Ġcost": 3506, "æ°¸": 3507, "_ST": 3508, "Ġinterest": 3509, "å¿ħé¡»": 3510, "');Ċ": 3511, "ply": 3512, "å°±ä¼ļ": 3513, "new": 3514, "æ¶Īè´¹": 3515, "ä¸ľè¥¿": 3516, "ron": 3517, "åĨ²": 3518, "Log": 3519, "ĠInd": 3520, "Ġexp": 3521, "Def": 3522, "ĠAN": 3523, "Ġgroup": 3524, "é¥Ń": 3525, "ences": 3526, "Ġfri": 3527, "è°ģ": 3528, "ideo": 3529, "[\"": 3530, "http": 3531, "åįĪ": 3532, "åª": 3533, "bug": 3534, "ç¬Ķ": 3535, "ĠĠĠĠĠĠĠĠĠĠĠĠ": 3536, "Ġ×": 3537, "leg": 3538, "ived": 3539, "Ġreport": 3540, "Ġeng": 3541, "è°¢": 3542, "å¤ļçļĦ": 3543, "åĬŁèĥ½": 3544, "Ġfamily": 3545, "å¯Ł": 3546, "çŃĶ": 3547, "æĭ¥": 3548, "Ġbetter": 3549, "Ġleft": 3550, "TR": 3551, "ification": 3552, "Ġprotect": 3553, "Ġchang": 3554, "75": 3555, "å®¡": 3556, "Ġrest": 3557, ".is": 3558, "Ġquest": 3559, "lected": 3560, "Ġservices": 3561, "31": 3562, "Ġcond": 3563, "ivity": 3564, "æ¯ķ": 3565, "Ġcome": 3566, "ä¸įæĸŃ": 3567, "èĸ": 3568, "Ġarray": 3569, "mit": 3570, "rec": 3571, "Ġlittle": 3572, "æıĲé«ĺ": 3573, "ru": 3574, "ĉm": 3575, "ç»¿": 3576, "aff": 3577, "Ġproble": 3578, "ä¹Ŀ": 3579, "éĻĪ": 3580, "çĪ¸": 3581, "Ġear": 3582, "âĢĻre": 3583, "ä¸¤ä¸ª": 3584, "çĿ¡": 3585, "ä¸Ŀ": 3586, "34": 3587, "Up": 3588, "},": 3589, "åī¯": 3590, "çĽ´æİ¥": 3591, "ability": 3592, "oll": 3593, "Ġchange": 3594, "Ġimportant": 3595, "EL": 3596, "åįł": 3597, "çĨŁ": 3598, "EM": 3599, "åŃĺåľ¨": 3600, "tes": 3601, "Ġarea": 3602, "å³": 3603, "çľŁçļĦ": 3604, "éĿł": 3605, "ql": 3606, "Ġcert": 3607, "Ġrange": 3608, "ĠÐ¿": 3609, "Ð·": 3610, "Ġspecial": 3611, "æĭ¬": 3612, "Ġinput": 3613, "ubl": 3614, "ç§»": 3615, "Ġarg": 3616, "Ġcopy": 3617, "ĉpublic": 3618, "Ġwithin": 3619, "è¿Ľåħ¥": 3620, "Array": 3621, "AP": 3622, "ĠSet": 3623, "æ¶¨": 3624, "iver": 3625, "ä¸įä»ħ": 3626, "ocus": 3627, "Ġpower": 3628, "Ġschool": 3629, "ane": 3630, "å®£": 3631, "Ġgot": 3632, "Ġincre": 3633, "ources": 3634, "viron": 3635, "Ġpop": 3636, "Ġsay": 3637, "Le": 3638, "tra": 3639, ".org": 3640, "åĩºæĿ¥": 3641, "Fr": 3642, "pert": 3643, "è½½": 3644, ")čĊ": 3645, "Ġcontent": 3646, "åİŁåĽł": 3647, "ĠÃ": 3648, "é¡¾": 3649, "ither": 3650, "éĿ©": 3651, "Ġanother": 3652, "ĠHow": 3653, "Al": 3654, "Qu": 3655, "è¾ĵ": 3656, "ral": 3657, "Ġsit": 3658, "abled": 3659, "Ġlight": 3660, "Ġwon": 3661, "Ġgrow": 3662, "At": 3663, "ves": 3664, "å¹³åı°": 3665, "ç¨İ": 3666, "ç£": 3667, "500": 3668, "Ġnon": 3669, "Result": 3670, "Val": 3671, "åĲĦç§į": 3672, "Ð¹": 3673, "æĢ¥": 3674, "Ġsince": 3675, "*/": 3676, "Ġaddress": 3677, "ĉs": 3678, "ately": 3679, "Ġsuccess": 3680, "cur": 3681, "ought": 3682, "äº§ä¸ļ": 3683, "Ġmight": 3684, "indows": 3685, "è¿Ļä¹Ī": 3686, "èľ": 3687, "ours": 3688, "è°Ī": 3689, "èĦļ": 3690, "ism": 3691, "Ġsomething": 3692, "ç§Ģ": 3693, "ij": 3694, "icle": 3695, "Not": 3696, "Code": 3697, "-l": 3698, "ination": 3699, "Ġable": 3700, "from": 3701, "å¥¶": 3702, "ç²¾ç¥ŀ": 3703, "ready": 3704, "æ±ī": 3705, "Ġlo": 3706, "Ġbig": 3707, "IR": 3708, "fect": 3709, ".in": 3710, "38": 3711, "/c": 3712, "Ġgl": 3713, "èİ·å¾Ĺ": 3714, "Ġuint": 3715, "æĴŃ": 3716, "åĪĺ": 3717, "æĬĹ": 3718, "map": 3719, "Ġtri": 3720, "object": 3721, "Ġexample": 3722, "ä¸Ģç§į": 3723, "ATE": 3724, "ks": 3725, "é¥®": 3726, "éĢĢ": 3727, "åĢĴ": 3728, "æłĩåĩĨ": 3729, "Ùĩ": 3730, "Ġmult": 3731, "mm": 3732, "resh": 3733, "é²ľ": 3734, "reated": 3735, "å·¥ç¨ĭ": 3736, "Ú©": 3737, "åİĨåı²": 3738, "ivid": 3739, "èĹı": 3740, "é¢ĳ": 3741, "æĪĲäºĨ": 3742, "go": 3743, "Ġblock": 3744, "Reg": 3745, "ç½ĳç»ľ": 3746, "ÉĻ": 3747, "Ġmov": 3748, "ĠLe": 3749, "ä»¥ä¸Ĭ": 3750, "Ġ^": 3751, "Ã³": 3752, "å¦Īå¦Ī": 3753, "èĭı": 3754, "ĠĠĠĠĠĠĠĠĠĠ": 3755, "_G": 3756, "Ġspe": 3757, "iff": 3758, "Att": 3759, "çļĦå¤§": 3760, "è¯Ĺ": 3761, "èĥľ": 3762, "icy": 3763, "ç»ĵæŀľ": 3764, "Manager": 3765, "Out": 3766, "orage": 3767, "åĽ°": 3768, "ene": 3769, "çº³": 3770, "orn": 3771, "ĠUS": 3772, "ç¡Ģ": 3773, "meric": 3774, "(this": 3775, "Message": 3776, "til": 3777, "char": 3778, "Ġgive": 3779, "endif": 3780, "è½®": 3781, "è´¨éĩı": 3782, "head": 3783, "annel": 3784, "sg": 3785, "ĠAp": 3786, "åŁºç¡Ģ": 3787, "-w": 3788, "ä»»ä½ķ": 3789, "/**Ċ": 3790, "_de": 3791, "ords": 3792, "Ġaction": 3793, "left": 3794, "æŁĵ": 3795, "Element": 3796, "assert": 3797, "Ġgame": 3798, "æĢĢ": 3799, "Ġhard": 3800, "oney": 3801, "Ġoptions": 3802, "ummary": 3803, "Ġche": 3804, "ĠØ§ÙĦ": 3805, "ision": 3806, "55": 3807, "å¾ģ": 3808, "Ġconf": 3809, "Ġwebs": 3810, "çĺ": 3811, "èĽĭ": 3812, "Ġjava": 3813, "48": 3814, "çļĦè¯Ŀ": 3815, "Ġonline": 3816, "ules": 3817, "irt": 3818, "else": 3819, "æİī": 3820, "ç«Ł": 3821, "lex": 3822, "Build": 3823, "ards": 3824, "æľĿ": 3825, "ãĢĤ(": 3826, "è§£åĨ³": 3827, "())": 3828, "Ġport": 3829, "aint": 3830, "ÃŃ": 3831, "åħ¨åĽ½": 3832, "ÐµÐ½": 3833, "amespace": 3834, "Ġjob": 3835, "Model": 3836, "æĪĳä»¬çļĦ": 3837, "è¡Ĺ": 3838, "åĬ³": 3839, "åĮħæĭ¬": 3840, ".re": 3841, "PL": 3842, "à§": 3843, "ADD": 3844, "åįķä½į": 3845, "Ġunt": 3846, "ĠTo": 3847, "mb": 3848, "vious": 3849, "_W": 3850, "çĸĳ": 3851, "äººä»¬": 3852, "anguage": 3853, "ird": 3854, "ained": 3855, "èĦ±": 3856, "å¢ŀåĬł": 3857, "uint": 3858, "ĠOr": 3859, "ÑĢÐ°": 3860, "signed": 3861, "Ġcontrol": 3862, "åºı": 3863, "ĠCont": 3864, "ç»©": 3865, "ç´¢": 3866, "Ġinclude": 3867, "Ġroom": 3868, "itive": 3869, "åħ°": 3870, "Ġpresent": 3871, "è½¯": 3872, "ector": 3873, "æķ£": 3874, "ç¤¼": 3875, "çļĦå°ı": 3876, "éļľ": 3877, "å¯¼èĩ´": 3878, "function": 3879, "æĤ£èĢħ": 3880, "place": 3881, "ling": 3882, "ä¹ĭéĹ´": 3883, "åĪĨæŀĲ": 3884, ".r": 3885, "Ġlaw": 3886, "UE": 3887, "æĺ¯åĲ¦": 3888, "Ġless": 3889, "Ġloc": 3890, "EX": 3891, "éģ¿": 3892, "ension": 3893, "comp": 3894, "ands": 3895, "Ġsource": 3896, "è¿°": 3897, "ĊĊĊ": 3898, "æĿĢ": 3899, "You": 3900, "Ġaccount": 3901, "pons": 3902, "Ġmus": 3903, "åı¶": 3904, "æ¯ıå¤©": 3905, "IF": 3906, "ĠAd": 3907, "istr": 3908, "html": 3909, "åħ³æ³¨": 3910, "arr": 3911, "çĳ": 3912, "Trans": 3913, ".pro": 3914, "Ġexpl": 3915, "joy": 3916, "çĩ": 3917, "37": 3918, "Ġcreat": 3919, "à¨": 3920, "Ġstore": 3921, "Count": 3922, "\",\"": 3923, "aps": 3924, "ipp": 3925, "æľīçļĦ": 3926, "å«": 3927, "çĶ³": 3928, "å®ģ": 3929, "www": 3930, "åĸĿ": 3931, "æīįèĥ½": 3932, "æ¬§": 3933, "å¤ĦçĲĨ": 3934, "../../": 3935, "ä»į": 3936, "åłĤ": 3937, "Ġsite": 3938, "Ġspecific": 3939, "(x": 3940, "ically": 3941, "å®Ī": 3942, "çŁ¥è¯Ĩ": 3943, "è·ĳ": 3944, "Ġsuper": 3945, "context": 3946, "åħ¸": 3947, "å¸®åĬ©": 3948, "Ġnever": 3949, "å¤ı": 3950, "And": 3951, "ç»§ç»Ń": 3952, "Ġconsider": 3953, "Ġsol": 3954, "ories": 3955, "\"]": 3956, "éĹ»": 3957, "åĵĪ": 3958, "æľīäºĽ": 3959, "éĢı": 3960, "è¯į": 3961, "pen": 3962, "éħ¸": 3963, "Ġrequired": 3964, "Inter": 3965, "âĤ": 3966, "Ġphot": 3967, "æ²Ļ": 3968, "/b": 3969, "older": 3970, "Ð¿": 3971, "Group": 3972, "è¡¨çİ°": 3973, "ailed": 3974, "ä¸ºä»Ģä¹Ī": 3975, "è¿ĲåĬ¨": 3976, "room": 3977, "æ¶²": 3978, "gg": 3979, "vironment": 3980, "éĥ¨éĹ¨": 3981, "icro": 3982, "eters": 3983, "ersion": 3984, "ute": 3985, "ots": 3986, "frac": 3987, "default": 3988, "Ġturn": 3989, "Ñĩ": 3990, "Ġlink": 3991, "args": 3992, "äº§çĶŁ": 3993, "éª¨": 3994, "_pro": 3995, "Ġmessage": 3996, "Ġdays": 3997, "æīĭæľº": 3998, "æİ§åĪ¶": 3999, "perties": 4000, "egr": 4001, "Ġindex": 4002, "Comm": 4003, "irc": 4004, ".,": 4005, "ocial": 4006, "struction": 4007, "æĽ²": 4008, "Ġworking": 4009, "KE": 4010, "44": 4011, "æ¸Ĳ": 4012, "ç§ĳæĬĢ": 4013, "çĤİ": 4014, "ä»£è¡¨": 4015, "Ġprom": 4016, "image": 4017, "åĲĪä½ľ": 4018, "39": 4019, "Ġinvest": 4020, "æľīæķĪ": 4021, "erver": 4022, "Ġsoftware": 4023, "odes": 4024, "Ġoption": 4025, "Ġbit": 4026, "ances": 4027, "ç¬¬ä¸ī": 4028, "æ±½è½¦": 4029, "Ġbas": 4030, "300": 4031, "ogle": 4032, "åĪĨéĴŁ": 4033, "çĸ¾": 4034, "Ġorig": 4035, "åĢŁ": 4036, "Ġstyle": 4037, "åĩºäºĨ": 4038, "oud": 4039, "/p": 4040, "Ġalong": 4041, "Ġexc": 4042, "input": 4043, "Ġneeds": 4044, "æĹłæ³ķ": 4045, "link": 4046, "è¿İ": 4047, "img": 4048, "ä»·åĢ¼": 4049, "ĠGener": 4050, ">ĊĊ": 4051, "çĶ¨æĪ·": 4052, ".T": 4053, "')Ċ": 4054, "à°": 4055, "Ġchildren": 4056, "éĴĪ": 4057, "ĠPh": 4058, "è¡Įä¸º": 4059, "ERT": 4060, "åľĪ": 4061, "ç»į": 4062, "ä»¥åĲİ": 4063, "é¡¶": 4064, "ç®Ģåįķ": 4065, "_size": 4066, "éĺ´": 4067, "${": 4068, "no": 4069, "Var": 4070, "Ġdem": 4071, "Ġes": 4072, "ä¼´": 4073, "ç«¥": 4074, "Ġgiven": 4075, "éľ²": 4076, "çĻ»": 4077, "ĠâĪ": 4078, "86": 4079, "æĶ»": 4080, "ĠÐ²": 4081, "Ġimage": 4082, "ä¸ĢçĤ¹": 4083, "CL": 4084, "æ¦Ĥ": 4085, "Ġvisit": 4086, "atform": 4087, "aph": 4088, "Ġgover": 4089, "ormal": 4090, "å¼¹": 4091, "åİĤ": 4092, "ĠBe": 4093, "hether": 4094, "Color": 4095, "æľºæŀĦ": 4096, "çłģ": 4097, "ä¸ĢæŃ¥": 4098, "çĸ«": 4099, "æ¸¯": 4100, ".N": 4101, "eturn": 4102, "Status": 4103, "CK": 4104, "å½ĵçĦ¶": 4105, "Ġdri": 4106, "plement": 4107, "Ġq": 4108, "ended": 4109, "OS": 4110, "Ġfollowing": 4111, "Ġnil": 4112, "åºĬ": 4113, "198": 4114, "ĉf": 4115, "ĠAmeric": 4116, "à¤¾": 4117, "Ð³": 4118, "æĸ°çļĦ": 4119, "Ġbody": 4120, "åĽº": 4121, "Ġcontext": 4122, "ä¹ĭåīį": 4123, "roller": 4124, "éĺ¶": 4125, "EF": 4126, "èµĦæºĲ": 4127, "sw": 4128, "å¹ħ": 4129, "true": 4130, "Ġquality": 4131, "ga": 4132, "ĠShe": 4133, "å°ļ": 4134, "Ġdistribut": 4135, "å½Ĵ": 4136, "å½ĵæĹ¶": 4137, "From": 4138, "ches": 4139, "è¸": 4140, "æĶ¿çŃĸ": 4141, "ç³ĸ": 4142, "åıªè¦ģ": 4143, "åĪ¤": 4144, "à¥į": 4145, "ä½łä»¬": 4146, "Ġund": 4147, "åĵ¥": 4148, "/d": 4149, "çİī": 4150, "å®ĮæĪĲ": 4151, "éĽª": 4152, "#if": 4153, "ĠI'": 4154, "Ġpres": 4155, "#endif": 4156, "èĪª": 4157, "ä¿ĥ": 4158, "orem": 4159, "éĶ®": 4160, "Pos": 4161, "å¾ĹåĪ°": 4162, "witch": 4163, "point": 4164, "é½": 4165, "88": 4166, "Ġfood": 4167, "çĽ®æłĩ": 4168, "Ġalready": 4169, "ĠĠĊ": 4170, "js": 4171, "é¦Ĩ": 4172, "Ġproducts": 4173, "istory": 4174, "OP": 4175, "æĲŃ": 4176, "uture": 4177, "åĬª": 4178, "Ġdone": 4179, "Ġposition": 4180, "å®Įåħ¨": 4181, "ç§ĳåŃ¦": 4182, "][": 4183, "_set": 4184, "èģļ": 4185, "Ġdouble": 4186, "Ġdisplay": 4187, "Ġmeet": 4188, "å®«": 4189, "fe": 4190, "çľŁæŃ£": 4191, "></": 4192, "å®¶åºŃ": 4193, "Ġbased": 4194, "ention": 4195, "æķĳ": 4196, "é¸¡": 4197, "éĢĲ": 4198, "åį±": 4199, "ĠAdd": 4200, "äº¤æĺĵ": 4201, "YPE": 4202, "ERR": 4203, "content": 4204, "Ġenc": 4205, "UM": 4206, "gether": 4207, "å®¢æĪ·": 4208, "çŃĳ": 4209, "Util": 4210, "lib": 4211, "eger": 4212, "å°ıæĹ¶": 4213, "_add": 4214, "Ġtot": 4215, "inc": 4216, "Ġbase": 4217, "Ġcover": 4218, "std": 4219, "ä¼ĳ": 4220, "ĠSp": 4221, "å®ľ": 4222, "è¾¾åĪ°": 4223, "Ġreason": 4224, "ç«ŀ": 4225, "æ¯Ķå¦Ĥ": 4226, "Ġask": 4227, "ĠAss": 4228, "ieve": 4229, ".app": 4230, "_v": 4231, "erc": 4232, "Ġpossible": 4233, "export": 4234, "pression": 4235, "ection": 4236, "way": 4237, "ĠNone": 4238, "pecial": 4239, "Ġadv": 4240, "ä¸įåı¯": 4241, "ĠÑģ": 4242, "ĠPr": 4243, "Ġmaking": 4244, "Ġtoday": 4245, "Ġlooking": 4246, "ured": 4247, "Ġeither": 4248, ".B": 4249, "éĤ£äºĽ": 4250, "ids": 4251, "å°Ħ": 4252, "argin": 4253, "ĠTe": 4254, "Ġben": 4255, "icon": 4256, "åĽ½åĨħ": 4257, "Ġshort": 4258, "align": 4259, "Ġwidth": 4260, "ORT": 4261, "æĳĦ": 4262, "èīºæľ¯": 4263, ".util": 4264, "Ø¨": 4265, "ently": 4266, "ategory": 4267, "65": 4268, "ç»¼": 4269, "è§Ħå®ļ": 4270, "ä¸Ĭæµ·": 4271, "atab": 4272, "cho": 4273, "Ġeff": 4274, "ĠâĢĶ": 4275, "æ¸¸æĪı": 4276, "ANT": 4277, "å§Ĳ": 4278, "æĺ¯ä¸Ģä¸ª": 4279, "è¯¯": 4280, "%,": 4281, "æĽ´åĬł": 4282, "âĢĻve": 4283, "Ap": 4284, "ä¿ĿæĬ¤": 4285, "ĠâĢĺ": 4286, "å®ŀéĻħ": 4287, "ired": 4288, "ilt": 4289, "Ġcent": 4290, "Ġbeh": 4291, "iversity": 4292, "ole": 4293, "éĻ¤äºĨ": 4294, "ively": 4295, "db": 4296, "æĶ¯æĮģ": 4297, "Ġstudents": 4298, "æĿĤ": 4299, "çĪ¶æ¯į": 4300, "mt": 4301, "04": 4302, "ĠList": 4303, "èĻļ": 4304, "acter": 4305, "ç©ºéĹ´": 4306, "Ġ{ĊĊ": 4307, "æĹ¢": 4308, "åªĴ": 4309, "ä»Ĭå¹´": 4310, "Ġmove": 4311, "02": 4312, "ung": 4313, "apt": 4314, "Ġpract": 4315, "è·Į": 4316, ".L": 4317, "ĠBl": 4318, "ĠInt": 4319, "åľ°åĮº": 4320, "æľīéĻĲ": 4321, "ä½³": 4322, "Response": 4323, "Ġuntil": 4324, "çĶŁåĳ½": 4325, "ĠÙħ": 4326, "Ñħ": 4327, "Ġimpro": 4328, "gress": 4329, "é¢ľ": 4330, "ĠÂ": 4331, "Ġoutput": 4332, "ä¼łç»Ł": 4333, "Ġdev": 4334, "åĲ¯": 4335, "ç´¯": 4336, "Ġappe": 4337, "æıĲåįĩ": 4338, "èĻĳ": 4339, "è¶£": 4340, "Table": 4341, "Ġste": 4342, "à¥įà¤": 4343, "æĿ¡ä»¶": 4344, "æĸĹ": 4345, "åĬªåĬĽ": 4346, ")(": 4347, "ights": 4348, "æĺ¯åľ¨": 4349, "è±Ĩ": 4350, "iod": 4351, "met": 4352, "Ġproperty": 4353, "éĵ¶è¡Į": 4354, "ĉcase": 4355, "åħ³äºİ": 4356, "æľºä¼ļ": 4357, "orld": 4358, "idget": 4359, "çĽĸ": 4360, "æ¤į": 4361, "æ¶¦": 4362, "Client": 4363, "sub": 4364, "åĪ«äºº": 4365, "\">Ċ": 4366, "Ġenjoy": 4367, "ills": 4368, "isplay": 4369, "////////////////": 4370, "Ġcourse": 4371, "Ġwebsite": 4372, "çģ¯": 4373, "éĥ½ä¼ļ": 4374, "Ġparent": 4375, "ottom": 4376, "ä¿ĿæĮģ": 4377, "çļ®èĤ¤": 4378, "çŃ¾": 4379, "Ġfac": 4380, "adata": 4381, "ä¸įåĪ°": 4382, "å¨ģ": 4383, "_ADD": 4384, "Ġbuy": 4385, "ĠWhen": 4386, "Ġcalled": 4387, "Ġident": 4388, "ably": 4389, "å¦ĤæŃ¤": 4390, "obj": 4391, "array": 4392, "Ġlarge": 4393, "aim": 4394, "Ġindust": 4395, "Be": 4396, "ä»ĭç»į": 4397, "Ġ*/ĊĊ": 4398, "size": 4399, "Ġunderstand": 4400, "Ġresearch": 4401, "è¯¢": 4402, "kt": 4403, "por": 4404, "éĻĦ": 4405, "æ²ī": 4406, "rl": 4407, "Ð±": 4408, "ram": 4409, "è´´": 4410, "era": 4411, "ĠOR": 4412, "Ġsever": 4413, "arning": 4414, "ĠNo": 4415, "å½¢æĪĲ": 4416, "outh": 4417, "Ġspace": 4418, "è´£ä»»": 4419, "rix": 4420, "Ġmap": 4421, "Ġter": 4422, "Override": 4423, "Ġbro": 4424, "ä¹Łæľī": 4425, "æīĺ": 4426, ".x": 4427, "åĳ¼": 4428, "ä¸ĵå®¶": 4429, "æĹħæ¸¸": 4430, "é¹": 4431, "escription": 4432, "çĶ°": 4433, "Ġcou": 4434, "={": 4435, "Ġpast": 4436, "åĩĨå¤ĩ": 4437, "thers": 4438, "Ġann": 4439, "ensor": 4440, "66": 4441, "Ġtimes": 4442, "èĳĹ": 4443, "Ġâī": 4444, ".sh": 4445, "INT": 4446, "78": 4447, "Image": 4448, "ides": 4449, "side": 4450, "åı¯æĺ¯": 4451, "bol": 4452, "Ġtool": 4453, "open": 4454, ">(": 4455, "Ġnode": 4456, "typ": 4457, "ta": 4458, "è®¸å¤ļ": 4459, "åĨ³å®ļ": 4460, "(l": 4461, "éĢłæĪĲ": 4462, "é¥°": 4463, "ops": 4464, "Ġlearn": 4465, "Ã¤": 4466, "æĢ§çļĦ": 4467, "\"/": 4468, "å¼Ģåıĳ": 4469, "Ġleg": 4470, "Ġ()": 4471, "isk": 4472, "illion": 4473, "opyright": 4474, "Ġemploy": 4475, "Ġeasy": 4476, "uments": 4477, "åĪĽæĸ°": 4478, "ips": 4479, "ĠEn": 4480, "éĶĢåĶ®": 4481, "èĤ¥": 4482, "æĵįä½ľ": 4483, "Ed": 4484, "æľªæĿ¥": 4485, "-in": 4486, "ibility": 4487, "ĠWith": 4488, "éľĢæ±Ĥ": 4489, "æĥĬ": 4490, "åĨ°": 4491, "UP": 4492, "box": 4493, "ä¸ĭæĿ¥": 4494, "éļıçĿĢ": 4495, "adi": 4496, "å»¶": 4497, "Ad": 4498, "å°¤": 4499, "æ¨¡å¼ı": 4500, "raft": 4501, "(int": 4502, "Ġresponse": 4503, "åĿļæĮģ": 4504, "Aut": 4505, "ifier": 4506, "å·¨": 4507, "theorem": 4508, "å¢ŀéķ¿": 4509, "ional": 4510, "å¹¶ä¸Ķ": 4511, "æ´²": 4512, "æŀ¶": 4513, "AME": 4514, "Input": 4515, "ĠĠĠĠĠĠĠĠĠĠĠĠĠĠĠĠĠ": 4516, "èĤĮ": 4517, "acy": 4518, "ç§ĭ": 4519, "æµª": 4520, "ĠĠĠĠĊ": 4521, "Ġclear": 4522, "Ġprofession": 4523, "è®°èĢħ": 4524, "ording": 4525, "unk": 4526, "ĉĉĉĉĉĉ": 4527, "node": 4528, "orth": 4529, "æģ¶": 4530, "Ġmaterial": 4531, "aper": 4532, "æĹ¶ä»£": 4533, "output": 4534, "yth": 4535, "Ġdon't": 4536, "åĿı": 4537, "ĠGr": 4538, "Ġkind": 4539, "å¼±": 4540, "åıĤåĬł": 4541, "æĿĲæĸĻ": 4542, "Ã¼": 4543, "(new": 4544, "çĶµè¯Ŀ": 4545, "æĹ¥æľ¬": 4546, "éĥ½æľī": 4547, ".F": 4548, "Ġseem": 4549, "è¿·": 4550, "å·¦åı³": 4551, "sl": 4552, "ÑĪ": 4553, "ä¸ļåĬ¡": 4554, "åºĶçĶ¨": 4555, "05": 4556, "ä¹±": 4557, "Ġaway": 4558, "\"ĊĊ": 4559, "å¸Ŀ": 4560, "client": 4561, "Ġtogether": 4562, "public": 4563, "Ġfore": 4564, "85": 4565, "bar": 4566, "ÐµÑĢ": 4567, "å¥³äºº": 4568, "àª": 4569, "åħ¨çĲĥ": 4570, "VE": 4571, "æ´¾": 4572, "state": 4573, "(e": 4574, "è´¥": 4575, "unic": 4576, "åĳĬè¯ī": 4577, "éĨĴ": 4578, "è´Łè´£": 4579, "Ġsearch": 4580, "ha": 4581, "_ex": 4582, "æĿ¥è¶Ĭ": 4583, "ä¹ĭä¸Ģ": 4584, "_to": 4585, "éĩĬ": 4586, "Ġocc": 4587, "alf": 4588, "è®¡åĪĴ": 4589, "ĉint": 4590, "ividual": 4591, "Ġmeans": 4592, "è¾Ĩ": 4593, "Ġside": 4594, "èµĦéĩĳ": 4595, "Ġshare": 4596, "Property": 4597, "åĪ©çĶ¨": 4598, "å»ºè®®": 4599, "Ġmoney": 4600, "æĥ¯": 4601, "rior": 4602, "Ġdocument": 4603, "è¶ĬæĿ¥è¶Ĭ": 4604, "!!": 4605, "Ġbegin": 4606, "Ġred": 4607, "éĩĩçĶ¨": 4608, "æ°´å¹³": 4609, "Ġclient": 4610, "Ġoften": 4611, "Call": 4612, "ffer": 4613, "æİ¢": 4614, "Ġcontact": 4615, "Block": 4616, "ollection": 4617, "Ġauto": 4618, "irm": 4619, "Ġmatch": 4620, "ike": 4621, "cd": 4622, "é¢Ĩå¯¼": 4623, "ĠĠĠĠĠĠĠĠĠĠĠĠĠĠ": 4624, "Action": 4625, "Ġresults": 4626, "olumn": 4627, "ä¸įå¾Ĺ": 4628, "çīĻ": 4629, "Ġtrad": 4630, "Ġbackground": 4631, "è¿ĩåİ»": 4632, "å¸ģ": 4633, "çĥŁ": 4634, "âĢ¦": 4635, "å¦ĩ": 4636, "ç»ıè¿ĩ": 4637, "ĠâĦ": 4638, "æĭ¥æľī": 4639, "æĮ¥": 4640, "Sub": 4641, "ĠComm": 4642, "Ġit's": 4643, "æļĸ": 4644, "Ġhouse": 4645, "Ġens": 4646, ".ex": 4647, "pre": 4648, "Ġhref": 4649, "è°ĵ": 4650, "adding": 4651, "uro": 4652, "æ·¡": 4653, "Ġintern": 4654, "èį£": 4655, "è§¦": 4656, "ĠAt": 4657, "Ð¾Ð²": 4658, "èĶ": 4659, "éĩĳèŀį": 4660, "Ġvalues": 4661, "ä¸įçŁ¥éģĵ": 4662, "ãģ®": 4663, "anel": 4664, "Ġ|Ċ": 4665, "Stream": 4666, "package": 4667, "fs": 4668, "åºĨ": 4669, "95": 4670, "åĪº": 4671, "åĨ¬": 4672, "count": 4673, "ised": 4674, "---": 4675, "æľīåħ³": 4676, "ç¡¬": 4677, "umer": 4678, "æĹ§": 4679, "ada": 4680, "Ġabove": 4681, "Ġpot": 4682, "æĿ¨": 4683, "Ġinc": 4684, "éĤ£ä¸ª": 4685, "çº¯": 4686, "(const": 4687, "Ġlow": 4688, "ĠÙ": 4689, "æĿŁ": 4690, "Ġagainst": 4691, "æĬĺ": 4692, "å¤®": 4693, "éĩİ": 4694, "Ġupdate": 4695, "actory": 4696, "æı¡": 4697, "ĠĊĊ": 4698, "Ġtreat": 4699, "atabase": 4700, "Ġclean": 4701, "IB": 4702, "Ġimp": 4703, "Ġbeaut": 4704, "è·Ŀ": 4705, "Ġhum": 4706, "ä½ľèĢħ": 4707, "èĤ¯": 4708, "inary": 4709, "earch": 4710, "å´": 4711, "Ä±": 4712, "(S": 4713, "Ġload": 4714, "ored": 4715, "åħµ": 4716, "ç§¯æŀģ": 4717, "Ġfloat": 4718, "board": 4719, "éĩĮçļĦ": 4720, "Ġair": 4721, ".length": 4722, "ugin": 4723, "ART": 4724, "cp": 4725, "ĠChrist": 4726, "format": 4727, "ury": 4728, "No": 4729, "Ġwhy": 4730, "åıĺåĮĸ": 4731, "æİĮ": 4732, "aring": 4733, "Ġperfect": 4734, "ìĿ": 4735, "Ġ});Ċ": 4736, "Instance": 4737, "unch": 4738, "çĬ¶æĢģ": 4739, "imum": 4740, "Ġbelow": 4741, "åľĨ": 4742, "éĽ¶": 4743, "ç»ıå¸¸": 4744, "å¿ĺ": 4745, "'re": 4746, "Ġhaving": 4747, "span": 4748, "âĢĻll": 4749, ".R": 4750, "Em": 4751, "omain": 4752, "æĬĵ": 4753, "çĥĪ": 4754, "yc": 4755, "uk": 4756, "èĢ³": 4757, "åİļ": 4758, "Ġhost": 4759, "Ġlate": 4760, "ajor": 4761, "ley": 4762, "è®¾å¤ĩ": 4763, "Ġcommunity": 4764, "udio": 4765, "à®": 4766, "éĴ¢": 4767, "na": 4768, "ĠBr": 4769, "_info": 4770, "Ġfour": 4771, "Line": 4772, "å»ºçŃĳ": 4773, "400": 4774, "(i": 4775, "çŀ": 4776, "ĠMar": 4777, "ulation": 4778, "çĶ²": 4779, "æĺİæĺ¾": 4780, "IO": 4781, "Ġë": 4782, "Ġinstance": 4783, "plit": 4784, "èĪŀ": 4785, "éģĹ": 4786, "rect": 4787, "Pr": 4788, "å¹¸ç¦ı": 4789, "æľīäºº": 4790, "lick": 4791, "éĿ¢çļĦ": 4792, "Ð°ÑĢ": 4793, "ibrary": 4794, "Ġpersonal": 4795, "è¶ħè¿ĩ": 4796, "lin": 4797, "ba": 4798, "Ġcomb": 4799, "æ£ĢæŁ¥": 4800, "å°ģ": 4801, "è´«": 4802, "æĽ´å¤ļ": 4803, "andom": 4804, "ze": 4805, "plied": 4806, "ograph": 4807, "è®¿": 4808, "Ġ===": 4809, "opp": 4810, "vider": 4811, "ĠÐº": 4812, "Ġpack": 4813, "fort": 4814, "å²Ľ": 4815, "Ġexist": 4816, "Ġmembers": 4817, "æĩĤ": 4818, "ä½ľåĵģ": 4819, "HT": 4820, "web": 4821, "çĽĽ": 4822, "çĽ¸ä¿¡": 4823, "å¯»": 4824, "};ĊĊ": 4825, ">>": 4826, "upport": 4827, "Ġprice": 4828, "pc": 4829, "æĶ¹åıĺ": 4830, "func": 4831, "Ġmakes": 4832, "ones": 4833, "äºĪ": 4834, "yl": 4835, "åĨł": 4836, "Ġsingle": 4837, "ç¿»": 4838, "uid": 4839, "utes": 4840, "ç¬¦": 4841, "ODE": 4842, "une": 4843, "ç½ª": 4844, "çº¸": 4845, "Ġwrite": 4846, "åģı": 4847, "çļĦå¿ĥ": 4848, "ĠCan": 4849, "ABLE": 4850, "çļĩ": 4851, "æķĻåŃ¦": 4852, "scri": 4853, "Ġthing": 4854, "Ġamount": 4855, "éº»": 4856, "Point": 4857, "ising": 4858, "Ġgovern": 4859, "Ġcomplet": 4860, "ymbol": 4861, "-h": 4862, "Ġindividual": 4863, "ĠâĨ": 4864, "Ġdevice": 4865, "åıªèĥ½": 4866, "AY": 4867, ".to": 4868, "IX": 4869, "Ġwin": 4870, "é©¾": 4871, "Ġcur": 4872, "Ġcomput": 4873, "Ġlater": 4874, "_get": 4875, "ä¸įå°ĳ": 4876, "ä¹Łä¼ļ": 4877, "æķħäºĭ": 4878, "IZ": 4879, "Ġfont": 4880, "å¥¥": 4881, "oor": 4882, "çĪĨ": 4883, "Ġbenef": 4884, "Ġlik": 4885, "Ġopt": 4886, "08": 4887, "å°¼": 4888, "ead": 4889, "Ġnear": 4890, "Ġweb": 4891, "å¼Ģå±ķ": 4892, "ĠCON": 4893, "éĽĨåĽ¢": 4894, "Button": 4895, "ĠThat": 4896, "%%": 4897, "Ġonce": 4898, "ĠSee": 4899, "Ġanal": 4900, "Ø©": 4901, "iction": 4902, "ç»¼åĲĪ": 4903, "Fl": 4904, "åºĵ": 4905, "summary": 4906, "ä¾§": 4907, "ä¸Ģå®ļè¦ģ": 4908, "Ġà¦": 4909, "æİĪ": 4910, "Ġredu": 4911, "ĠMy": 4912, "éĩįçĤ¹": 4913, "Ġenough": 4914, "è¯Ĭ": 4915, "äº¤éĢļ": 4916, "å®½": 4917, "Ġbecome": 4918, "èĵĿ": 4919, "ML": 4920, "é£İéĻ©": 4921, "net": 4922, "åıĹåĪ°": 4923, "Ġ\"\"": 4924, "ls": 4925, "ĠPublic": 4926, ".\"Ċ": 4927, "Ġver": 4928, "ç¼ĵ": 4929, "æ¾": 4930, "ç§ĺ": 4931, "Ð°Ð»": 4932, "ctx": 4933, "47": 4934, "çĶŁçļĦ": 4935, "âĢĻm": 4936, "Ġdetails": 4937, "çĬ¯": 4938, "obile": 4939, "å¼Ł": 4940, "TE": 4941, "Ġboolean": 4942, "Rec": 4943, "connect": 4944, "Ġdevelopment": 4945, "Ref": 4946, "éĽĦ": 4947, "æĺ¾ç¤º": 4948, "Ġnetwork": 4949, "Box": 4950, "ĠEng": 4951, "Ġ[Ċ": 4952, "path": 4953, "omen": 4954, "æŃ£å¸¸": 4955, "æ¡¥": 4956, "ĉd": 4957, "èĪĴ": 4958, "åİħ": 4959, "ster": 4960, "æķĻå¸Ī": 4961, "Ġfocus": 4962, ",âĢĿ": 4963, "query": 4964, "ney": 4965, "avel": 4966, "ç»ıèĲ¥": 4967, "ç»ıéªĮ": 4968, ".Get": 4969, "ixed": 4970, "ators": 4971, "Ġfar": 4972, "ounter": 4973, "Ġdate": 4974, "ĠGod": 4975, "Ġinstall": 4976, "ç»ĵæŀĦ": 4977, "49": 4978, "è¿Ŀ": 4979, "ialog": 4980, "46": 4981, "ĠIm": 4982, "rew": 4983, "éĽħ": 4984, "æ¯ĶèµĽ": 4985, "oogle": 4986, "æ¹¿": 4987, "ĠÐ½": 4988, "æĮīçħ§": 4989, "_list": 4990, "Ġstatus": 4991, "Ġmean": 4992, "å¤ļå°ĳ": 4993, "tx": 4994, "ĠOF": 4995, "avor": 4996, "Ġbo": 4997, "-st": 4998, "æİ¥åıĹ": 4999, "pose": 5000, "å¹¶ä¸į": 5001, "197": 5002, "Ġopport": 5003, "ython": 5004, "tain": 5005, "eta": 5006, "ĉfor": 5007, "åĩºçļĦ": 5008, "ä¸¥éĩį": 5009, "æ´ģ": 5010, "Ġra": 5011, "Ġothers": 5012, "ç¼ĺ": 5013, "ele": 5014, "atter": 5015, "æŃ£åľ¨": 5016, "())Ċ": 5017, "EB": 5018, "è®¨": 5019, "update": 5020, "uest": 5021, "Ġhold": 5022, "Ġdesc": 5023, "Builder": 5024, "äºİæĺ¯": 5025, "ĠThese": 5026, "App": 5027, ".W": 5028, "Ġprovided": 5029, "Õ¡": 5030, "éļĲ": 5031, "_se": 5032, "ites": 5033, "åħ³éĶ®": 5034, "å®Ĺ": 5035, "ç§ģ": 5036, "è®©äºº": 5037, "_ch": 5038, "çĸ¾çĹħ": 5039, "Ġreview": 5040, "ino": 5041, "Ø¹": 5042, "çº·": 5043, "field": 5044, "æķ¢": 5045, ".\"": 5046, "Ġcertain": 5047, "curity": 5048, "Ġhot": 5049, "ework": 5050, "åĿĢ": 5051, "ä¸ĩåħĥ": 5052, "ĠReg": 5053, "###": 5054, "Ġpubl": 5055, "Str": 5056, "à¤¾à¤": 5057, "Ġthought": 5058, "æĮģç»Ń": 5059, "ana": 5060, "down": 5061, "Ġfeatures": 5062, "Date": 5063, "çĥ§": 5064, "Ġcontinue": 5065, "Check": 5066, "Ġ}čĊ": 5067, "àµį": 5068, "Start": 5069, "åĲĮåŃ¦": 5070, "ĠWhat": 5071, "Ġquick": 5072, "åıĳå¸ĥ": 5073, "Act": 5074, "Ġseveral": 5075, "æĻºèĥ½": 5076, "xy": 5077, "å³°": 5078, "izer": 5079, "Ġacross": 5080, "dep": 5081, "Ġhttp": 5082, "Ġque": 5083, "å¼ĥ": 5084, "Ġsocial": 5085, "éģį": 5086, "Ġclos": 5087, "Ġconc": 5088, "alt": 5089, "/*Ċ": 5090, "é¢ĨåŁŁ": 5091, "77": 5092, "å¯Ĵ": 5093, "Ġtalk": 5094, "éĺħ": 5095, "Ġvalid": 5096, "ĠIS": 5097, "....": 5098, "æķ´ä¸ª": 5099, "å®¶éķ¿": 5100, "///": 5101, "ponents": 5102, "ä¸Ģä¸ªäºº": 5103, "active": 5104, "Ġheight": 5105, "×Ļ": 5106, "Ġlive": 5107, "ĠGeneral": 5108, "æľĢç»Ī": 5109, "PT": 5110, "Ġleast": 5111, "};Ċ": 5112, "ĠAm": 5113, "å±ŀäºİ": 5114, "ä¸ĭçļĦ": 5115, "ä¸ĢåĪĩ": 5116, "ĠUniversity": 5117, "_of": 5118, "Ġlabel": 5119, "Ġfuture": 5120, "åĲİæĿ¥": 5121, "ica": 5122, "Ġcomes": 5123, "info": 5124, "iful": 5125, "ari": 5126, "ç¯ĩ": 5127, "Ġfund": 5128, "RESS": 5129, "used": 5130, "Ġtotal": 5131, "å¦»": 5132, "çİ°åľº": 5133, "å¥¹çļĦ": 5134, "ĠFl": 5135, "ocol": 5136, "Ġclose": 5137, "èĢĮæĺ¯": 5138, "iles": 5139, "çĶ·äºº": 5140, "Ġcountry": 5141, "09": 5142, "è¯ļ": 5143, "ĠDo": 5144, "çļĦéĹ®é¢ĺ": 5145, "ä¹³": 5146, "ä¸ªæľĪ": 5147, "amb": 5148, "-g": 5149, "oper": 5150, "å¿Ļ": 5151, "PC": 5152, "å¸Ń": 5153, "Ġsn": 5154, "hema": 5155, "ä¹łæĥ¯": 5156, "Ġhope": 5157, "./": 5158, "Ġvari": 5159, "Query": 5160, "Ġwait": 5161, "Ġele": 5162, "å»ºç«ĭ": 5163, "å®Ŀå®Ŀ": 5164, "åĲī": 5165, "ging": 5166, "height": 5167, "conom": 5168, "irection": 5169, "mark": 5170, "éĵ¾": 5171, "å·Ŀ": 5172, "Ġenvironment": 5173, "æ³¡": 5174, "Ġselect": 5175, "é»ĺ": 5176, "Ġtask": 5177, "ounds": 5178, "åīĤ": 5179, "éķľ": 5180, "åªĴä½ĵ": 5181, "Read": 5182, "03": 5183, "Ġwhether": 5184, "Ġapplication": 5185, "Ġgetting": 5186, "iple": 5187, "æļ´": 5188, "Ġland": 5189, "Ġ>=": 5190, "Ġtrack": 5191, "éŀ": 5192, "éĽ·": 5193, "Base": 5194, "Ġhig": 5195, "çİ°ä»£": 5196, "æ±ĩ": 5197, "Ġeduc": 5198, "pring": 5199, "Ġinitial": 5200, "áĢº": 5201, "æĹłè®º": 5202, "Ġparticular": 5203, "æ»ĳ": 5204, "Ġseason": 5205, "imal": 5206, "ĠCopyright": 5207, "Ġelect": 5208, "ding": 5209, "astic": 5210, "End": 5211, "åįģåĪĨ": 5212, "anies": 5213, "ç»ĵåĲĪ": 5214, "çĿ£": 5215, "Ġsimple": 5216, "da": 5217, "ilities": 5218, "ÑĨ": 5219, "Content": 5220, "Ġvideo": 5221, "å±Ĭ": 5222, "æĮĳ": 5223, "Ġmusic": 5224, "æł·çļĦ": 5225, "ĠID": 5226, ")ãĢĤ": 5227, "ocket": 5228, "æ±¤": 5229, "Ġant": 5230, "Ġteach": 5231, "Ġcreated": 5232, "erial": 5233, "riter": 5234, "èģĶç³»": 5235, "å°Ĭ": 5236, "Ġever": 5237, "åŃķ": 5238, "æ··": 5239, "èĦĤ": 5240, "éĿ¢å¯¹": 5241, "rows": 5242, "Ġcity": 5243, "ç§Ł": 5244, "æľ«": 5245, "asure": 5246, "èī²çļĦ": 5247, "ç¼©": 5248, "lt": 5249, "Ġapplic": 5250, "ouch": 5251, "èĥĥ": 5252, "Buffer": 5253, "urther": 5254, "oved": 5255, "OW": 5256, "æ´ĭ": 5257, "EC": 5258, "Number": 5259, "éĶħ": 5260, "68": 5261, "ched": 5262, "å¸¦æĿ¥": 5263, "Ġproblem": 5264, "æĸ¹åĲĳ": 5265, "Ġ<=": 5266, "Component": 5267, "Ġbox": 5268, "sole": 5269, "éĢĶ": 5270, "è¿ĩç¨ĭä¸Ń": 5271, "Ġmind": 5272, "ĠĠĠĠĠĠĠĠĠĠĠĠĠĠĠĠĠĠĠĠĠĠĠĠĠĠĠĠĠĠĠ": 5273, "Ġmajor": 5274, "options": 5275, "Ġawait": 5276, ";čĊčĊ": 5277, "Mode": 5278, "ken": 5279, "-r": 5280, "ĠCar": 5281, "Ġterms": 5282, "ĠNot": 5283, "achine": 5284, "éĻĨ": 5285, "æľŁéĹ´": 5286, "Ġabs": 5287, "Ġsw": 5288, "sk": 5289, "åİĭåĬĽ": 5290, "åħ·ä½ĵ": 5291, ":ĊĊ": 5292, "ä¸°å¯Į": 5293, "ĠTest": 5294, "åıĤä¸İ": 5295, "Ġfre": 5296, "ç®±": 5297, "æĿ¥çľĭ": 5298, "Ġstarted": 5299, "Ġdoing": 5300, "å±ĭ": 5301, "soft": 5302, "æ¥ļ": 5303, "æĿ¯": 5304, "Ġactually": 5305, "æĪĳåĽ½": 5306, "æĮĤ": 5307, "Ġlen": 5308, "_un": 5309, "icult": 5310, "çĶµè§Ĩ": 5311, "bt": 5312, "èĥ¡": 5313, "ached": 5314, "Ġlength": 5315, "Ġperm": 5316, "Ġcommon": 5317, "256": 5318, "ALL": 5319, "Token": 5320, "Handler": 5321, "åĲİçļĦ": 5322, "Ġcenter": 5323, "Ġtitle": 5324, "æĬ±": 5325, "','": 5326, "%A": 5327, "äº¿åħĥ": 5328, "Off": 5329, "å°¤åħ¶": 5330, "Ġ\"\\": 5331, "Ġemail": 5332, "){Ċ": 5333, "é½Ĳ": 5334, "Ġwalk": 5335, "åıĬæĹ¶": 5336, "Ġnat": 5337, "MS": 5338, "æ¼«": 5339, "Ġpurch": 5340, "Ġborder": 5341, "çĶµå½±": 5342, "åĬ±": 5343, "Ġexpected": 5344, "len": 5345, "TH": 5346, "(r": 5347, "å¹´è½»": 5348, "ITY": 5349, "Options": 5350, "äºĭæĥħ": 5351, "ç¦ģ": 5352, "oe": 5353, "max": 5354, "TO": 5355, "Ġtyp": 5356, "flow": 5357, "erved": 5358, "ipe": 5359, "å¼ķèµ·": 5360, "è´·": 5361, "Ġcell": 5362, "Ġterm": 5363, "è°ĥæķ´": 5364, "Ġrecord": 5365, "éĺ¶æ®µ": 5366, "Ġstep": 5367, "Ġactiv": 5368, ".id": 5369, "egin": 5370, ".log": 5371, "(a": 5372, "æĢĿæĥ³": 5373, "ĠInst": 5374, "}}": 5375, "What": 5376, "ointer": 5377, "çĮ®": 5378, "Sp": 5379, ">čĊ": 5380, "éŁ©": 5381, "é¦ĸåħĪ": 5382, "Ġexecut": 5383, "ĠOur": 5384, "åľ£": 5385, "ĠAut": 5386, "æĢ»æĺ¯": 5387, "Ġflo": 5388, "DB": 5389, "éķ¿æľŁ": 5390, "{čĊ": 5391, "anks": 5392, "ĠMed": 5393, "irtual": 5394, "Ġfiles": 5395, "Source": 5396, "itted": 5397, "èģĶç½ĳ": 5398, "qrt": 5399, "æ¬²": 5400, "Ġtell": 5401, "start": 5402, "è¿Ľä¸ĢæŃ¥": 5403, "Ġrecomm": 5404, "æľīéĻĲåħ¬åı¸": 5405, "Âł": 5406, "Ġnight": 5407, "æĶ¹éĿ©": 5408, "ä½įç½®": 5409, "apter": 5410, "Ġdeal": 5411, "Ġyet": 5412, "å®ŀæĸ½": 5413, "æİª": 5414, "éĢĤåĲĪ": 5415, "æĶ¶åħ¥": 5416, "ĉĠĠĠ": 5417, "æĥł": 5418, "éĥ½ä¸į": 5419, "å·§": 5420, "Ġ($": 5421, "roups": 5422, "Ġcred": 5423, "Ph": 5424, "Ġhttps": 5425, "æĸĩç«ł": 5426, "ĉĊ": 5427, "çªĹ": 5428, "Ġcard": 5429, "Ġwriting": 5430, "æī©": 5431, "çĲĨè§£": 5432, "ä¼Ļ": 5433, "Ġcomplete": 5434, "07": 5435, "Ġrespons": 5436, "uster": 5437, "Ġmar": 5438, "True": 5439, "ĠMay": 5440, "UI": 5441, "æ±¡": 5442, "èħ¿": 5443, "Ġbar": 5444, "(_": 5445, "æĥ³è¦ģ": 5446, "Ġdig": 5447, "è·³": 5448, "ä½ĵéªĮ": 5449, "arse": 5450, "ĠÐ´": 5451, "Ġ},": 5452, "é¾Ħ": 5453, "Ġdiff": 5454, "Ġcatch": 5455, "posit": 5456, "(C": 5457, "Ġang": 5458, ".append": 5459, "Ġentry": 5460, "offset": 5461, "Ġplease": 5462, "Ġpie": 5463, "Ġinvol": 5464, "Ġmom": 5465, "Ġcut": 5466, "åı¦å¤ĸ": 5467, "ILE": 5468, "Ġhours": 5469, "èĢĥèĻĳ": 5470, "åĶ±": 5471, "There": 5472, "Ġauthor": 5473, "èĦī": 5474, "å¿Ĩ": 5475, "PO": 5476, "andle": 5477, "ptr": 5478, "Ġcompet": 5479, ".de": 5480, "ilar": 5481, "otal": 5482, "å°±åı¯ä»¥": 5483, "ç¾İåħĥ": 5484, "å¿«ä¹Ĳ": 5485, "Ġsrc": 5486, "ogn": 5487, "mon": 5488, "èª": 5489, "ged": 5490, "è®¢": 5491, "Ġbring": 5492, "\"/>Ċ": 5493, "Ġthough": 5494, "ä¼ĺåĬ¿": 5495, "Ġ=Ċ": 5496, "ev": 5497, "UG": 5498, "istry": 5499, "åħ¨éĿ¢": 5500, "most": 5501, "å¢Ļ": 5502, "ï¼ģ\"": 5503, "Ġapply": 5504, "\"),": 5505, "_ID": 5506, "df": 5507, "çļĦæĥħåĨµ": 5508, "éļĶ": 5509, "ued": 5510, "Ġstory": 5511, "42": 5512, "éľĩ": 5513, "Ġevents": 5514, "èĥ¸": 5515, "pg": 5516, "âĢĵ": 5517, "Hel": 5518, "æļĹ": 5519, "])": 5520, "aken": 5521, "åĶ¯": 5522, "æĳ©": 5523, "Connect": 5524, "Ġworks": 5525, "AX": 5526, "Ġoffers": 5527, "fully": 5528, "ç³»åĪĹ": 5529, "å©Ĩ": 5530, "imate": 5531, "omet": 5532, "ĠCo": 5533, "json": 5534, "ners": 5535, "ULT": 5536, "uation": 5537, "èµ¶": 5538, "Ġindustry": 5539, "æ¶ī": 5540, "ä»¥ä¸ĭ": 5541, "Ġdest": 5542, "æģĭ": 5543, "Ġitems": 5544, "Ġelement": 5545, "æ¯«": 5546, "Ġsum": 5547, "ny": 5548, "æĪĲç»©": 5549, "ports": 5550, "åĶĲ": 5551, "ä¿Ŀè¯ģ": 5552, "AND": 5553, "×ķ": 5554, "Us": 5555, "ĠØ¨": 5556, "é«ĺçļĦ": 5557, "Ġbed": 5558, "Pre": 5559, "ĠÚ©": 5560, "æľīäºĨ": 5561, "åĩıå°ĳ": 5562, "ĠÐ±": 5563, "imer": 5564, "Version": 5565, "ental": 5566, "Ġstrong": 5567, "è®¯": 5568, "Ġdistributed": 5569, "Ġminutes": 5570, "ä»ª": 5571, "å¿ĥçļĦ": 5572, "Ġprovides": 5573, "06": 5574, "åŃĻ": 5575, "Ġperiod": 5576, "icial": 5577, "å¥³æĢ§": 5578, "When": 5579, "artment": 5580, "ä¸įéĶĻ": 5581, "Ġrepresent": 5582, "éĺµ": 5583, "ĠHowever": 5584, "ili": 5585, "àµįà´": 5586, "wards": 5587, "å¹¼": 5588, "Ġunique": 5589, "KEY": 5590, "Ġrele": 5591, "pare": 5592, "Ġneeded": 5593, "éĩıçļĦ": 5594, "CC": 5595, "åħ±åĲĮ": 5596, "ä¼°": 5597, "Ġpict": 5598, "ĠÑĤ": 5599, "################": 5600, "Ġdraw": 5601, "é¼ĵ": 5602, "åĢį": 5603, "ĉt": 5604, "ĠMon": 5605, "Ġcamp": 5606, "çļĦäºĭæĥħ": 5607, "é©¶": 5608, "abs": 5609, "ering": 5610, "é£Łçī©": 5611, "æī¬": 5612, "èĨľ": 5613, "Ġadded": 5614, ".ap": 5615, "ĠÐ¾": 5616, "ä¸įå¥½": 5617, "OUT": 5618, "æĽ¾ç»ı": 5619, "Ġcompanies": 5620, "èĦı": 5621, "Ġmot": 5622, "Ð¾ÑĢ": 5623, "Ġknown": 5624, "uly": 5625, "åĮ»çĸĹ": 5626, "Ġreceived": 5627, "UD": 5628, "xx": 5629, "ä¹ĺ": 5630, "Ð¾Ð»": 5631, "New": 5632, "Ġbuilding": 5633, "lish": 5634, "åħĪçĶŁ": 5635, "my": 5636, "co": 5637, "ERS": 5638, "äºĭä¸ļ": 5639, "Ġserver": 5640, "uit": 5641, ".data": 5642, "Ġprevious": 5643, "Ġdownload": 5644, "åŃ¦éĻ¢": 5645, "ĠTHE": 5646, "Method": 5647, "åĭĩ": 5648, "ĉg": 5649, "å¿ĥçĲĨ": 5650, "Ġeverything": 5651, "\\u": 5652, "Page": 5653, ".y": 5654, "Ġtraining": 5655, "/t": 5656, "pu": 5657, "æĿ¥èĩª": 5658, "NU": 5659, "è®©æĪĳ": 5660, "Ġimplement": 5661, "æģ©": 5662, "Ġder": 5663, "èĤĿ": 5664, "Ġregister": 5665, ".size": 5666, "Ġdue": 5667, "Ġoriginal": 5668, "oke": 5669, "Ġess": 5670, "Ġprob": 5671, "ä»¥æĿ¥": 5672, "urance": 5673, "Equal": 5674, "åºĦ": 5675, "æĪĲæľ¬": 5676, "_path": 5677, "ãĥ¼": 5678, "urch": 5679, "Ø§ÙĨ": 5680, "Ġlimit": 5681, "èĤł": 5682, "åĤ¨": 5683, "ledge": 5684, "ĠCal": 5685, "å¦¹": 5686, "çĶ³è¯·": 5687, "![": 5688, "åģļå¥½": 5689, "Ġtypes": 5690, "æħ§": 5691, "anch": 5692, "System": 5693, "150": 5694, "ado": 5695, "Ġstudy": 5696, "agn": 5697, "Gener": 5698, "ĠObject": 5699, "åĩłä¸ª": 5700, "Ġpick": 5701, "Ġformat": 5702, "Ġmedia": 5703, "PS": 5704, "¹ģ": 5705, "Ġhappen": 5706, "çĽ®çļĦ": 5707, "Ġ*)": 5708, "ç¨³å®ļ": 5709, "Ġchall": 5710, "çĭĹ": 5711, "Gr": 5712, "`,": 5713, "Null": 5714, "ĉĉĉĉĉĉĉĉ": 5715, "ä¼ļè®®": 5716, "æĪĲéķ¿": 5717, "è¯¸": 5718, "Ġblog": 5719, "æĻ®éĢļ": 5720, "Ġstre": 5721, "çĻĮ": 5722, "ining": 5723, "åĬłå¼º": 5724, "Ġbeautiful": 5725, "Ġassoci": 5726, "ITH": 5727, "ohn": 5728, "dr": 5729, "Ġsend": 5730, "æī§è¡Į": 5731, "èĢĲ": 5732, "è®¤è¯Ĩ": 5733, "å¹ķ": 5734, "æĦıè¯Ĩ": 5735, "_count": 5736, "enses": 5737, "ervices": 5738, "Ġpress": 5739, "äººçĶŁ": 5740, "èĮĥåĽ´": 5741, ".io": 5742, "ä»ĸä»¬çļĦ": 5743, "Resource": 5744, "ä¿Ŀéļľ": 5745, "ynam": 5746, "Ġfriend": 5747, "è¡¡": 5748, "NS": 5749, "çĮª": 5750, "è¶ĭ": 5751, "Ġtax": 5752, "Ġmargin": 5753, "æķı": 5754, "èįĲ": 5755, "_work": 5756, "ĠFe": 5757, "æ²Ł": 5758, "å°¿": 5759, "Ġjoin": 5760, "orry": 5761, "ç¨ĭåº¦": 5762, "amework": 5763, "_pl": 5764, "local": 5765, "æ³ķå¾ĭ": 5766, "ĠCol": 5767, "ĉstruct": 5768, "iy": 5769, "æ¶Īè´¹èĢħ": 5770, "Ġpain": 5771, "Ġchanges": 5772, "ç»ª": 5773, "Attribute": 5774, "çĶµåŃĲ": 5775, "ĠDr": 5776, "Ġcustomers": 5777, "ARR": 5778, "imary": 5779, "åĬŀæ³ķ": 5780, "itc": 5781, "num": 5782, "84": 5783, "196": 5784, "çļĦæĹ¶éĹ´": 5785, "éģ¿åħį": 5786, "è¯´æĺİ": 5787, "();": 5788, "åį·": 5789, "çĥ¦": 5790, "location": 5791, "æ½®": 5792, "Ġlanguage": 5793, "ĠState": 5794, "ĠNOT": 5795, "amed": 5796, "ĠOne": 5797, "æ¯ıä¸ª": 5798, "xt": 5799, "æĺ¯ä¸Ģç§į": 5800, "Ġexact": 5801, "Ġlocation": 5802, "level": 5803, "åħ¨éĥ¨": 5804, "~~": 5805, "ï¼Ł\"": 5806, "67": 5807, "light": 5808, "ounc": 5809, "Ġlean": 5810, "Ġlarg": 5811, "çļĦé«ĺ": 5812, "åĩ¡": 5813, ".html": 5814, "QL": 5815, "hel": 5816, "Ġmiss": 5817, "attr": 5818, "ĠIntern": 5819, "Ġtre": 5820, "ĉthis": 5821, "ãĢĭ,": 5822, "env": 5823, "Ġenerg": 5824, "ancial": 5825, "ç»ıåİĨ": 5826, "Ġearly": 5827, "Ġmonths": 5828, "asing": 5829, "Ġ${": 5830, "TER": 5831, "ĉelse": 5832, "(),Ċ": 5833, "Ġaff": 5834, "æ¯ķä¸ļ": 5835, "-re": 5836, "oute": 5837, "IZE": 5838, "Ġmanagement": 5839, "Ġensure": 5840, "ä¸»ä¹ī": 5841, "ools": 5842, "aur": 5843, "mber": 5844, "è´Ńä¹°": 5845, "pli": 5846, "LL": 5847, "Frame": 5848, "Ġdiscuss": 5849, "Ġcommand": 5850, "çĶľ": 5851, "-color": 5852, "abor": 5853, "Ġmode": 5854, "\\Ċ": 5855, "END": 5856, "Ġnecess": 5857, "ĉbreak": 5858, "ä¿ĿéĻ©": 5859, "rip": 5860, "æĬ½": 5861, "ony": 5862, "Ġaddition": 5863, "Ġcollection": 5864, "ises": 5865, "IST": 5866, "Ġissues": 5867, "Ġtechnology": 5868, "èģĮä¸ļ": 5869, "ç½ĳç«Ļ": 5870, "%ãĢĤ": 5871, "Acc": 5872, "\").": 5873, "//Ċ": 5874, "sel": 5875, "Ġurl": 5876, "çĽŁ": 5877, "nown": 5878, "Ġautom": 5879, "èģĺ": 5880, "ä¸Ģå¤©": 5881, "èĥŀ": 5882, "Ġsave": 5883, "(h": 5884, "ðŁ": 5885, "ACK": 5886, "oon": 5887, "Ð°ÑĤ": 5888, "Init": 5889, "}čĊ": 5890, "uary": 5891, "åĩī": 5892, "å¾Ģå¾Ģ": 5893, "æĦıä¹ī": 5894, "pected": 5895, "ison": 5896, "èıĮ": 5897, "++)": 5898, "Ġstay": 5899, "Ġfront": 5900, "å²Ĺ": 5901, "æ±ł": 5902, "Ġsubject": 5903, "_TYPE": 5904, "Ġheart": 5905, "Ġpoints": 5906, "Default": 5907, "800": 5908, "äº¤æµģ": 5909, "åŃĲçļĦ": 5910, "Ġclick": 5911, "atrix": 5912, "]);Ċ": 5913, "CTION": 5914, "Ġey": 5915, "root": 5916, "èĤ¯å®ļ": 5917, "Ø§Ø": 5918, "Õ¡Õ": 5919, "Ġ};Ċ": 5920, "atal": 5921, "apping": 5922, "Ġimprove": 5923, "Ġargs": 5924, "ÛĴ": 5925, "Ġsell": 5926, "çĦ¶èĢĮ": 5927, "åį«çĶŁ": 5928, "just": 5929, "Ġvarious": 5930, "ç«ŀäºī": 5931, "printf": 5932, "ĠANY": 5933, "è´Ŀ": 5934, "åĪ¶åº¦": 5935, "ici": 5936, "èĲ¥åħ»": 5937, "uper": 5938, "Ass": 5939, "æĹĹ": 5940, "(re": 5941, "verse": 5942, "Listener": 5943, "Ġagre": 5944, "Ġusers": 5945, "æķ´ä½ĵ": 5946, "-S": 5947, "Ûģ": 5948, "äº¦": 5949, "ume": 5950, "æĸĳ": 5951, "Ġwhole": 5952, "çļĦåľ°æĸ¹": 5953, "Ã¶": 5954, "å¾Īå¤ļäºº": 5955, "æĢª": 5956, "åĲ´": 5957, "æ¡£": 5958, "ä¿ĥè¿Ľ": 5959, "_LO": 5960, "Oper": 5961, "çĪ±æĥħ": 5962, "ä¼ļæľī": 5963, "Ġquestions": 5964, "æľĢå¥½": 5965, "åĪ¸": 5966, "pm": 5967, "Ġflow": 5968, "äº¡": 5969, "Ġcame": 5970, "Ġansw": 5971, "æł¹æľ¬": 5972, "åĢº": 5973, "encies": 5974, "_CON": 5975, "ĠQu": 5976, "ä¼ĺç§Ģ": 5977, "å®ĥçļĦ": 5978, "åĽłç´ł": 5979, "Ġglobal": 5980, "Ġyoung": 5981, "vm": 5982, "Update": 5983, "ĠÐ¸": 5984, "Command": 5985, "(String": 5986, "rypt": 5987, "çº¹": 5988, "medi": 5989, "äºĴèģĶç½ĳ": 5990, "å½»": 5991, "anced": 5992, "ĠÐ¼": 5993, "oto": 5994, "ç¥ĸ": 5995, "_key": 5996, "_cl": 5997, "ç¹ģ": 5998, "ĠEd": 5999, ".create": 6000, "aid": 6001, "éŁ³ä¹Ĳ": 6002, "åĹ": 6003, "ä¹Łè®¸": 6004, "å¯¹æĸ¹": 6005, "98": 6006, "ysis": 6007, "Ġdescription": 6008, "å°¾": 6009, "Factory": 6010, "Ġperformance": 6011, "ĠMin": 6012, "Ġhistory": 6013, "ĠReturn": 6014, "ĠData": 6015, "empt": 6016, "Ġmillion": 6017, "Entry": 6018, "Ġupd": 6019, "oz": 6020, "è§ĦåĪĴ": 6021, "_value": 6022, "clus": 6023, "åĬłåħ¥": 6024, "Ġsent": 6025, "Ġsays": 6026, "Ġprofessional": 6027, "Ġpercent": 6028, "æĤī": 6029, "Ġhandle": 6030, "Ġadditional": 6031, "Ġwhite": 6032, "è§Ħæ¨¡": 6033, "How": 6034, "Ġca": 6035, "So": 6036, "idence": 6037, "ĠEX": 6038, "Ġdeterm": 6039, "pecially": 6040, "åĪĨåĪ«": 6041, "èµŀ": 6042, "åĬĽéĩı": 6043, "åĽ¢éĺŁ": 6044, "([": 6045, "åĲĽ": 6046, "ias": 6047, "Ġcannot": 6048, "èģĬ": 6049, "æ»¡è¶³": 6050, "æīĭæľ¯": 6051, "Ġengine": 6052, "ç¡®å®ļ": 6053, "ä»¥ä¸º": 6054, "cer": 6055, "èħ¹": 6056, "================================": 6057, "Ġfail": 6058, "äºĨä¸Ģä¸ª": 6059, "åĪ·": 6060, "Ġextends": 6061, "Ġfilename": 6062, "Ġcult": 6063, "æ¶Īæģ¯": 6064, "æ¹¾": 6065, "NE": 6066, "Ġetc": 6067, "cel": 6068, "æĹ¦": 6069, "æİ¨èįĲ": 6070, "Function": 6071, "icrosoft": 6072, "amera": 6073, "Ġphys": 6074, "ĠDes": 6075, "Ġtook": 6076, "ĠST": 6077, "èĪ¹": 6078, "Ġwindow": 6079, "åĮºåŁŁ": 6080, "Ġaccept": 6081, "\".": 6082, "æĸ¹æ¡Ī": 6083, "Ġstrateg": 6084, "Ġprotected": 6085, "ributes": 6086, "label": 6087, "table": 6088, "ival": 6089, "idden": 6090, "èĲ¨": 6091, "Ġbutton": 6092, "ä»¥åīį": 6093, "(struct": 6094, "çĴ": 6095, "éĺ»": 6096, "è±ª": 6097, "è°·": 6098, "å¥ĭ": 6099, "Vis": 6100, "_file": 6101, "cast": 6102, "oundation": 6103, "éĩĮéĿ¢": 6104, "Ġfriends": 6105, "çĽĲ": 6106, "ĠBy": 6107, "aced": 6108, "Ġcook": 6109, "ĠPart": 6110, "_str": 6111, "Ġrunning": 6112, "Ġcolum": 6113, "âĳ": 6114, "çĤĴ": 6115, "Î±": 6116, "Ġdefined": 6117, "Ġ...": 6118, "æµĵ": 6119, "iday": 6120, "120": 6121, "ä½ĵç³»": 6122, "ç»ĵæĿŁ": 6123, "-y": 6124, "Ġvol": 6125, "ĠEuro": 6126, "ocs": 6127, "base": 6128, "Ġgovernment": 6129, "è®¡ç®Ĺ": 6130, "cul": 6131, "ĠFree": 6132, "ÙĤ": 6133, "gy": 6134, "efore": 6135, "ĠType": 6136, "æĪª": 6137, "Ġchoose": 6138, "ãĢĮ": 6139, "Ġexcept": 6140, "Ġinfo": 6141, "ĠSte": 6142, "æŁĶ": 6143, "Ġface": 6144, "è¿¹": 6145, "_reg": 6146, "Ġrelations": 6147, "å°ıç¼ĸ": 6148, ".class": 6149, "Ġfurther": 6150, "Ġareas": 6151, "Ġeconom": 6152, "ãĢį": 6153, "SON": 6154, "esh": 6155, "Ġstop": 6156, "Format": 6157, "Ob": 6158, "å¤§å¤ļ": 6159, "ĠInc": 6160, "eral": 6161, "Ġcharacter": 6162, "ĠComp": 6163, "åıĸå¾Ĺ": 6164, "Ġdam": 6165, "vector": 6166, "Address": 6167, "éĹŃ": 6168, "Ġfit": 6169, "å®£ä¼ł": 6170, "æ°¸è¿ľ": 6171, "Ġos": 6172, "iddle": 6173, "ourn": 6174, "ih": 6175, "ATION": 6176, "osp": 6177, "Ġseries": 6178, "Ġparticip": 6179, "åŁºéĩĳ": 6180, "èĪį": 6181, "etch": 6182, "posed": 6183, "Ġextra": 6184, "wise": 6185, "Ġenergy": 6186, "oice": 6187, "iting": 6188, "å¿«éĢŁ": 6189, "çıł": 6190, "ç½ĳåıĭ": 6191, "aging": 6192, ".cl": 6193, "eed": 6194, "åķĨä¸ļ": 6195, "elt": 6196, "ä¹Łåı¯ä»¥": 6197, "Layout": 6198, "íķ": 6199, "Ġsat": 6200, "åĪĢ": 6201, "ç£¨": 6202, "èµı": 6203, "çĪ·": 6204, "èĢĥè¯ķ": 6205, "Ġfall": 6206, "åĦ¿ç«¥": 6207, "ufact": 6208, "olume": 6209, "Ġrights": 6210, "åŁ¹åħ»": 6211, "é£Łåĵģ": 6212, "æľĢå¤§": 6213, "php": 6214, "Ġidea": 6215, "enn": 6216, "Ġentire": 6217, "Ġconditions": 6218, "Ġseen": 6219, "ä¼Ł": 6220, "core": 6221, "çıį": 6222, "å½¢å¼ı": 6223, "æľĢè¿ĳ": 6224, "change": 6225, "Part": 6226, "å¦Ĥä»Ĭ": 6227, "æĮĩå¯¼": 6228, "_ERR": 6229, "èİ«": 6230, "entry": 6231, "'),Ċ": 6232, "ĠGNU": 6233, "ĠAb": 6234, "ĠÎ±": 6235, "ama": 6236, "Run": 6237, "ä¸Ńå¤®": 6238, ".png": 6239, "Ġmember": 6240, "åĪĨäº«": 6241, "oom": 6242, "éĩįè¦ģçļĦ": 6243, "Ġrole": 6244, "éĿ¢ç§¯": 6245, "çİ°è±¡": 6246, "ãĢģ\"": 6247, "Output": 6248, "select": 6249, "Ġ(Ċ": 6250, "Ġincludes": 6251, "Ġhel": 6252, "Label": 6253, "anged": 6254, "æģĲ": 6255, "è¡ĮåĬ¨": 6256, "Per": 6257, "æĳĨ": 6258, "Ġ$(": 6259, "åį³ä½¿": 6260, "ä¸Ģå¹´": 6261, "åĪĽä¸ļ": 6262, "ä¸įåĲĮçļĦ": 6263, "çľĭçľĭ": 6264, "quired": 6265, "____": 6266, "SC": 6267, "Ġword": 6268, "_ADDRESS": 6269, "EMA": 6270, "åĴ¨": 6271, "å¿į": 6272, "åŃĶ": 6273, "Ġvia": 6274, "acity": 6275, "59": 6276, "oring": 6277, ".</": 6278, "éĹ²": 6279, ",čĊ": 6280, "ä¿Ĺ": 6281, "ä»»åĬ¡": 6282, "EST": 6283, "ĠUp": 6284, "ATA": 6285, "Ġcirc": 6286, "è¿Ļæ¬¡": 6287, "structor": 6288, "Ġtaking": 6289, "çĸ¼": 6290, "åİ»äºĨ": 6291, "æ½ľ": 6292, "Ġwonder": 6293, "æĤ²": 6294, "åľ°åĿĢ": 6295, "ka": 6296, "è¹": 6297, "(g": 6298, "Ġlim": 6299, "å¦Ĥæŀľä½ł": 6300, "wner": 6301, "åıĺå¾Ĺ": 6302, "cs": 6303, "å·¥ä¸ļ": 6304, "#align": 6305, "Ġ[]": 6306, "ds": 6307, "ribe": 6308, "dir": 6309, "verage": 6310, "å®¶çļĦ": 6311, "éĻįä½İ": 6312, "_sh": 6313, "è¿ĺè¦ģ": 6314, "Ġquestion": 6315, "åĢ¼å¾Ĺ": 6316, "UB": 6317, "ĠMe": 6318, "æľĹ": 6319, "Ġsomeone": 6320, "ç¾Ĭ": 6321, "èļ": 6322, "Ġstream": 6323, "è¾Ľ": 6324, "Ġhuman": 6325, ".v": 6326, "PORT": 6327, "ç¾¤ä¼Ĺ": 6328, "åĮ»çĶŁ": 6329, "åĴ¨è¯¢": 6330, "header": 6331, "ĠCount": 6332, "Ġexperi": 6333, "åĪĽéĢł": 6334, "Ġsorry": 6335, "åĩłä¹İ": 6336, "Ġsort": 6337, "()->": 6338, "inition": 6339, "istic": 6340, "INE": 6341, "æ³°": 6342, "bed": 6343, "çªģçĦ¶": 6344, "eline": 6345, "åĳĪ": 6346, "èµµ": 6347, "Ġpotential": 6348, "Ġcoll": 6349, "åħħåĪĨ": 6350, "Ġprior": 6351, "SD": 6352, "è¯º": 6353, "assword": 6354, "Ġforward": 6355, "æĶ¿æ²»": 6356, "çŃīçŃī": 6357, "ĠPer": 6358, "æĿ¥äºĨ": 6359, "æĻļä¸Ĭ": 6360, "å§ĵ": 6361, "ĠÙĪ": 6362, "Ġclaim": 6363, "fg": 6364, "Ġandroid": 6365, "Ġliving": 6366, "olve": 6367, "ĠSome": 6368, "çĶŁæĢģ": 6369, "namespace": 6370, "Ġneg": 6371, ".assert": 6372, "çĦ¦": 6373, "hing": 6374, "leep": 6375, "Ġwent": 6376, "åĪ¶éĢł": 6377, "river": 6378, "oding": 6379, "41": 6380, "æ¯įäº²": 6381, "Comp": 6382, "çī©è´¨": 6383, "æĽ´æĺ¯": 6384, "Controller": 6385, "oj": 6386, "actions": 6387, "æľīçĤ¹": 6388, "ä»İèĢĮ": 6389, "ĠAmerican": 6390, "Ġ]": 6391, "Ġoverride": 6392, "airs": 6393, "inding": 6394, "/g": 6395, "Ġamong": 6396, "Ġcustomer": 6397, ".name": 6398, "lege": 6399, "æīĢè°ĵ": 6400, "å±ı": 6401, "æī¾åĪ°": 6402, "Ġir": 6403, "èħ°": 6404, "128": 6405, "Ġ~": 6406, "Ġmen": 6407, "Ġblack": 6408, "éĴĪå¯¹": 6409, "idge": 6410, "col": 6411, "igr": 6412, "æĺ¨": 6413, "é¡¿": 6414, "Local": 6415, "Ð¾Ð¼": 6416, "ara": 6417, "ball": 6418, "Style": 6419, "å®ĥä»¬": 6420, "57": 6421, "isp": 6422, "èĩªçĶ±": 6423, "Ġwatch": 6424, "çļĦæĸ°": 6425, "æĪĺçķ¥": 6426, "æ®Ĭ": 6427, "å¡Ķ": 6428, "ä¸įç®¡": 6429, "Ġfilter": 6430, "Create": 6431, "issions": 6432, "195": 6433, "();čĊ": 6434, "src": 6435, "ĠFin": 6436, "å¿ĥéĩĮ": 6437, "```ĊĊ": 6438, "ĠSoftware": 6439, "now": 6440, "Ġindic": 6441, "Ġissue": 6442, "<T": 6443, "tocol": 6444, "Ġwr": 6445, "ceed": 6446, "æī¶": 6447, "Ġwall": 6448, "Ġreceive": 6449, "empty": 6450, "stream": 6451, "çĵľ": 6452, "Des": 6453, "Ġsimply": 6454, "ĠCheck": 6455, "Ġhalf": 6456, "Select": 6457, "Ġfire": 6458, "emory": 6459, "izing": 6460, "Ġach": 6461, "Ġtravel": 6462, "å¾®ä¿¡": 6463, "ttp": 6464, "Ġanything": 6465, "ĠâĦĿ": 6466, "_state": 6467, "ensive": 6468, "({": 6469, "69": 6470, "èĥİ": 6471, "Ġenter": 6472, "çĶ¨äºİ": 6473, "åĦ¿åŃĲ": 6474, "One": 6475, "\"))": 6476, "å¨ĺ": 6477, "Ġscreen": 6478, "Ġsugg": 6479, "though": 6480, "FIG": 6481, "åĬ¨åĬĽ": 6482, ".apache": 6483, "Ġbad": 6484, "æİ¨è¿Ľ": 6485, "unities": 6486, "body": 6487, "Ġsection": 6488, "Ġvariable": 6489, "EV": 6490, "nov": 6491, "èĤ¿": 6492, "Control": 6493, "ä¸įäºĨ": 6494, "èĥ¶": 6495, "ided": 6496, "Ġsuggest": 6497, "selves": 6498, "Ġdesigned": 6499, "×ķ×": 6500, "åĳĺå·¥": 6501, "åĵ¦": 6502, "è¿Ķ": 6503, "istration": 6504, "Ġintro": 6505, "Ġcurrently": 6506, "istance": 6507, "CP": 6508, "éĢŁåº¦": 6509, "æĺł": 6510, "é¼»": 6511, "ä¸ºä¸»": 6512, "Ġremove": 6513, "æĥ³åĪ°": 6514, "éŀĭ": 6515, "Ġstaff": 6516, "ĠÐ°": 6517, "Url": 6518, "èĴĻ": 6519, "Ġsecurity": 6520, "åŁ¹è®Ń": 6521, "çĿĽ": 6522, "å¾Īå¥½": 6523, "_res": 6524, "ĉvar": 6525, "å¹´æĿ¥": 6526, "Mod": 6527, "bit": 6528, "Ġoffset": 6529, "ä»ĵ": 6530, "Ġfive": 6531, "Ġà´": 6532, "Ġoffice": 6533, "æ®ĭ": 6534, "æ¢ħ": 6535, "where": 6536, "sm": 6537, "ii": 6538, "ä¸ĬäºĨ": 6539, "pository": 6540, "âĶ": 6541, "Ð¾Ð´": 6542, "Ġrate": 6543, "æķ¬": 6544, "zz": 6545, "(w": 6546, "æĮº": 6547, "Ġplatform": 6548, "ĠOff": 6549, "Ġquite": 6550, "58": 6551, "åĽ¾çīĩ": 6552, "/or": 6553, "Ġinstead": 6554, "Ġfavor": 6555, "èħ¾": 6556, "ees": 6557, "Ð¾Ð½": 6558, "åĺ´": 6559, "×Ļ×": 6560, "éĥ½åľ¨": 6561, "null": 6562, "Utils": 6563, "acing": 6564, "è¿ħ": 6565, "Ġsched": 6566, "tn": 6567, "Det": 6568, "\"></": 6569, "åŃ©åŃĲçļĦ": 6570, "TP": 6571, "ROM": 6572, "Ġgrad": 6573, "Ġintegr": 6574, "Ġsignific": 6575, "olicy": 6576, "ĠÕ": 6577, "å°±åĥı": 6578, "Ġboard": 6579, "ges": 6580, "Entity": 6581, "Filter": 6582, "éģĩåĪ°": 6583, "ç»Īäºİ": 6584, "umb": 6585, "Ġtemp": 6586, "Target": 6587, "çĽ¸å¯¹": 6588, "èĩªèº«": 6589, "uccess": 6590, "/Ċ": 6591, "igger": 6592, "build": 6593, "pack": 6594, "URL": 6595, "è·µ": 6596, "Ġful": 6597, "ables": 6598, "Ġswitch": 6599, "Ġbal": 6600, "43": 6601, "igation": 6602, "æ³ī": 6603, "Order": 6604, "æĬ¢": 6605, "ĠVal": 6606, "èµļ": 6607, "<?": 6608, "è¾ħ": 6609, "ä¸Ģä½į": 6610, "çĲĨè®º": 6611, "Ġbuffer": 6612, "Ġbelieve": 6613, "ĠDef": 6614, "å¾Ħ": 6615, "194": 6616, "Ġunsigned": 6617, "_time": 6618, "è¾ĳ": 6619, "åģ¶": 6620, "title": 6621, "aste": 6622, "Ġnatural": 6623, "çľĭçĿĢ": 6624, "çĤ¼": 6625, "msg": 6626, "unsigned": 6627, "Ġsizeof": 6628, "ae": 6629, "coming": 6630, "Module": 6631, "Ġrefer": 6632, "ĠYour": 6633, "åĲĮæł·": 6634, "èµĦäº§": 6635, "Ġexpress": 6636, "æĦŁæĥħ": 6637, "éĺħè¯»": 6638, "(*": 6639, "è´¦": 6640, "EMAIL": 6641, "GL": 6642, "åľ¨ä¸Ģèµ·": 6643, "Ġcorrect": 6644, "_i": 6645, "ales": 6646, "åĵŃ": 6647, "Ġcontract": 6648, "ilit": 6649, "ä¼Ĭ": 6650, "åĮĸçļĦ": 6651, "å¡ŀ": 6652, "hem": 6653, "eature": 6654, "ĠTrans": 6655, "Ġarch": 6656, "èĩªåĬ¨": 6657, "Ġmor": 6658, "ç»Ĩèĥŀ": 6659, "see": 6660, "ä¸Ĭå¸Ĥ": 6661, "ving": 6662, "è§Ĩé¢ĳ": 6663, "Ġroot": 6664, "Ġregard": 6665, "Width": 6666, "å°±èĥ½": 6667, "æĬ¥åĳĬ": 6668, "å¿½": 6669, "Ġcommunic": 6670, "ĠAfter": 6671, "Ġsystems": 6672, "éŃĶ": 6673, "éĻª": 6674, "çī¹çĤ¹": 6675, "Ġpret": 6676, "alloc": 6677, "Ġespecially": 6678, "Task": 6679, "å®ĭ": 6680, "ao": 6681, "Ġphone": 6682, "'ll": 6683, "_EX": 6684, "ä¸»ä»»": 6685, "æł¸å¿ĥ": 6686, "ASE": 6687, "ĠWest": 6688, "Ġage": 6689, "ĠUnited": 6690, "Max": 6691, "FO": 6692, "Ptr": 6693, "123": 6694, "Ġ['": 6695, "ament": 6696, "aker": 6697, "æīĵéĢł": 6698, "ams": 6699, "ĠCity": 6700, "è´¸": 6701, "Ġwomen": 6702, "Ġloss": 6703, "æ£®": 6704, "server": 6705, "600": 6706, "æ³½": 6707, "±ä¹Ĳ": 6708, "å°±è¦ģ": 6709, "åĬĽçļĦ": 6710, "åģļåĪ°": 6711, "Ġfast": 6712, "Ġpadding": 6713, "Ġthird": 6714, "ĠEurope": 6715, "Ġclients": 6716, "ç¥Ŀ": 6717, "icient": 6718, "çĶ¨çļĦ": 6719, "Ġ::": 6720, "åŃ¦ä¼ļ": 6721, "alled": 6722, "255": 6723, "Valid": 6724, "My": 6725, "Ġdie": 6726, "atas": 6727, "ĠAct": 6728, "æ¶Ĥ": 6729, "ĠGe": 6730, "pload": 6731, "Ext": 6732, "æĸ¹ä¾¿": 6733, "çĪ¶äº²": 6734, "Ġinside": 6735, "aged": 6736, "Ġinterface": 6737, "Row": 6738, "child": 6739, "Ġways": 6740, "ARG": 6741, "Ġvirtual": 6742, "IND": 6743, "Ġhom": 6744, "Met": 6745, "ios": 6746, "essages": 6747, "afe": 6748, "Ġresource": 6749, "Ġmemory": 6750, "Ġsaf": 6751, "æĹģ": 6752, "SP": 6753, "Ġyourself": 6754, "Ġready": 6755, "Ġproblems": 6756, "ĠJohn": 6757, "å®īæİĴ": 6758, "Ġsimilar": 6759, "æ´¥": 6760, "äººæīį": 6761, "grad": 6762, "ores": 6763, "æĥħç»ª": 6764, "Ġeffort": 6765, "quence": 6766, "åĬŀåħ¬": 6767, "Ġeveryone": 6768, "èĤº": 6769, "Child": 6770, "ĠFile": 6771, "ORD": 6772, "MD": 6773, "Ġoil": 6774, "ĠApp": 6775, "Back": 6776, "Ġbuilt": 6777, "Ġrow": 6778, "èĻİ": 6779, "ube": 6780, "pri": 6781, ")ãĢģ": 6782, "Ġobj": 6783, "Ġtw": 6784, "å§Ķåĳĺ": 6785, "Ġdifficult": 6786, "iet": 6787, "è¯ģæĺİ": 6788, "roy": 6789, "æ´ŀ": 6790, "_index": 6791, "ç¦»å¼Ģ": 6792, "Ġgames": 6793, "56": 6794, "Ġtakes": 6795, "ĠRed": 6796, "ç´«": 6797, "Ġlower": 6798, "å°±åľ¨": 6799, "çĶĺ": 6800, "Ġtaken": 6801, "ĠLog": 6802, "åĨľæĿĳ": 6803, "äº«åıĹ": 6804, "è¯´çļĦ": 6805, "ĠI'm": 6806, "Ġstandard": 6807, "æ·»": 6808, "bb": 6809, "Ġmultiple": 6810, "Ġfinancial": 6811, "æĻ¨": 6812, "Ġincluded": 6813, "çī¹èī²": 6814, "åĨĮ": 6815, "Window": 6816, "mod": 6817, "çĹĩçĬ¶": 6818, "-to": 6819, "`Ċ": 6820, "position": 6821, "æľĢå¤§çļĦ": 6822, "çļĦåıĳå±ķ": 6823, "Ġpopular": 6824, "çİ°å®ŀ": 6825, "è¯Ńè¨Ģ": 6826, "å¡ĳ": 6827, "åĪ¶ä½ľ": 6828, "áĢºáĢ": 6829, "æĽ¿": 6830, "æĺ¯ä»Ģä¹Ī": 6831, "Ġalmost": 6832, "ä¸¹": 6833, "æģ¢": 6834, "è¿ª": 6835, "èĤ¾": 6836, "ä¼¦": 6837, "ÐµÑĤ": 6838, "äººä½ĵ": 6839, "Ġquery": 6840, "only": 6841, "çĪ±çļĦ": 6842, "ming": 6843, "Ġreturns": 6844, "cm": 6845, "Ġallows": 6846, ".md": 6847, "_param": 6848, "æŃ£ç¡®": 6849, "ĠĠĠĠĠĠĠĠĠĠĠĠĠĠĠĠĠĠĠĠĠ": 6850, "oes": 6851, "-n": 6852, "åķ¦": 6853, "ĠCor": 6854, "åĨįæ¬¡": 6855, "æŃ£å¼ı": 6856, "Ġlearning": 6857, "å°Ŀ": 6858, "-size": 6859, "èħĲ": 6860, "åĩŃ": 6861, "ä»Ļ": 6862, "option": 6863, "äººç±»": 6864, "ARRANT": 6865, "Link": 6866, "èµ¢": 6867, "çģŃ": 6868, "çĪ¸çĪ¸": 6869, "ĠAND": 6870, "color": 6871, "uous": 6872, "ç¾İä¸½": 6873, "å½ĵåľ°": 6874, "ä¾ĿçĦ¶": 6875, "Ġ;": 6876, "eries": 6877, "æĲŀ": 6878, "æ¨ª": 6879, "ãģ«": 6880, "Arg": 6881, "åķĨåĵģ": 6882, "èµĦæĸĻ": 6883, "éģŃ": 6884, "æĹ¶æľŁ": 6885, "Ġge": 6886, "itut": 6887, "ä¸īä¸ª": 6888, "çģ¾": 6889, "rowser": 6890, "Vector": 6891, "001": 6892, "æĺ¯ä¸ª": 6893, "æ°ĳæĹı": 6894, "}čĊčĊ": 6895, "æĶ¾åľ¨": 6896, "ĠWARRANT": 6897, "Ġsepar": 6898, "è¯¦": 6899, ".k": 6900, "ç¬¦åĲĪ": 6901, "Ġlikely": 6902, "Ġgeneral": 6903, "æľĢé«ĺ": 6904, "Ġplayer": 6905, "Ġmodule": 6906, "Ġveh": 6907, "Ñİ": 6908, "ipment": 6909, "Ùģ": 6910, "azing": 6911, "ĠâĨĴ": 6912, "æĪĲç«ĭ": 6913, "Ġknowledge": 6914, "ĠAust": 6915, "RC": 6916, "bo": 6917, "LAG": 6918, "ĠEl": 6919, "å¥³åĦ¿": 6920, "adius": 6921, "Open": 6922, "æĬµ": 6923, "olutions": 6924, "Ġfoot": 6925, "79": 6926, "çĮ«": 6927, "host": 6928, "Ġflex": 6929, "Offset": 6930, "(v": 6931, "edia": 6932, "èĸĦ": 6933, "çĽ¸å½ĵ": 6934, "éĵº": 6935, "RI": 6936, "Ġsoon": 6937, "annot": 6938, "æİªæĸ½": 6939, "éĢĴ": 6940, "å¦Ļ": 6941, "æıĲåĩº": 6942, "}/": 6943, "æ¡ĥ": 6944, "çĩĥ": 6945, "Ġregular": 6946, "æĺ¯ä¸įæĺ¯": 6947, "èĤ¡ç¥¨": 6948, "ĠWorld": 6949, "çľŁå®ŀ": 6950, "Ġbrand": 6951, "ARE": 6952, "/v": 6953, "é²ģ": 6954, "æĪĳæĥ³": 6955, "Ġideas": 6956, "Ġthrows": 6957, "æĺ¯ä¸į": 6958, "è¦": 6959, "Ġmag": 6960, "*/Ċ": 6961, "ĠClass": 6962, "izes": 6963, "Ġ(\"": 6964, "----------------------------------------------------------------": 6965, "æĺİç¡®": 6966, "Ġnet": 6967, "çľ¼çĿĽ": 6968, "Ġdiv": 6969, "æ¢ģ": 6970, "æĺ¯åĽłä¸º": 6971, "ua": 6972, "Ġhowever": 6973, "Ø§ÙĦ": 6974, "Ġcomfort": 6975, "å¾ª": 6976, "Provider": 6977, "ini": 6978, "ä»ģ": 6979, "éħĴåºĹ": 6980, "èĥĨ": 6981, "Ġrelationship": 6982, "imple": 6983, "Thread": 6984, "Web": 6985, "å°±ä¸į": 6986, "Length": 6987, "åį³åı¯": 6988, "_KEY": 6989, "Ġconnection": 6990, "ĠReal": 6991, "Ġrather": 6992, "Char": 6993, "Ð¸Ð½": 6994, "Ġdeliver": 6995, "æ¬¢è¿İ": 6996, "_workbook": 6997, "Ġpublished": 6998, "Ġframe": 6999, "Ġdepend": 7000, "inate": 7001, "Num": 7002, "ĠDO": 7003, ".push": 7004, "Ġnews": 7005, "ĠUs": 7006, "ç¤¾åĮº": 7007, "Ġcouple": 7008, "åľ°äº§": 7009, "åıĳæĮ¥": 7010, "è²": 7011, "Ġoutside": 7012, "URE": 7013, "æĦ¿æĦı": 7014, "ä¸ģ": 7015, "æĭŁ": 7016, "Ġsession": 7017, "Server": 7018, "ĠMark": 7019, "Ġnormal": 7020, "Position": 7021, "æĻĵ": 7022, "æĪ´": 7023, "ĠSm": 7024, "à¦¾": 7025, "ĠFoundation": 7026, "/pro": 7027, "aa": 7028, "ursor": 7029, "Ġwords": 7030, "é¡µ": 7031, "æĦŁåıĹ": 7032, "DF": 7033, "æİ¨åĬ¨": 7034, "Ġpaper": 7035, "çŁ¿": 7036, "à³": 7037, "æ²¿": 7038, "ç½ļ": 7039, "status": 7040, "ÑģÐº": 7041, "Ġweight": 7042, "æ³¥": 7043, "è°ĥæŁ¥": 7044, "Click": 7045, "_con": 7046, "Ġtag": 7047, "author": 7048, "Ġincrease": 7049, "ç¬¬åĽĽ": 7050, "$(": 7051, "åĲĪåĲĮ": 7052, "-pro": 7053, "æ³ª": 7054, "Ġimpact": 7055, "\");ĊĊ": 7056, "Ġuseful": 7057, "âĸ": 7058, "ç»ķ": 7059, "ä¹Łå°±æĺ¯": 7060, "æļĤ": 7061, ".jpg": 7062, "ä¸įè¶³": 7063, "Ð¶": 7064, "ĠInter": 7065, "ynamic": 7066, "çļĦå¥½": 7067, "_X": 7068, "Ġfill": 7069, "gen": 7070, "width": 7071, "Ùĥ": 7072, "æĸ°éĹ»": 7073, "åĽ°éļ¾": 7074, "Ġ+Ċ": 7075, "èģĶåĲĪ": 7076, "ĠÏ": 7077, "Ġactive": 7078, "åı¥è¯Ŀ": 7079, "iqu": 7080, "Ġlocated": 7081, "(M": 7082, "hent": 7083, "Rem": 7084, "æĴĳ": 7085, "ĠWITH": 7086, "ãĢĤĊĊ": 7087, "stract": 7088, "æĥľ": 7089, "æķĮ": 7090, "åĲĪçĲĨ": 7091, "ĠDep": 7092, ".value": 7093, "Ø§Ø±": 7094, "ÐµÐ»": 7095, "Ġpolit": 7096, "èº«è¾¹": 7097, "ĠGu": 7098, "æģ¢å¤į": 7099, "çĸ«æĥħ": 7100, "Top": 7101, "ä¸įçŁ¥": 7102, "è¡ĮæĶ¿": 7103, "])Ċ": 7104, "Ġresources": 7105, "ä¼¤å®³": 7106, "remove": 7107, "Process": 7108, "ĠPar": 7109, "Level": 7110, "Ġadmin": 7111, "èħº": 7112, "è½¦è¾Ĩ": 7113, "ä¸»åĬ¨": 7114, "åı¦ä¸Ģ": 7115, "ç¾İçļĦ": 7116, "åĪ°åºķ": 7117, "à¶": 7118, "Ġprobably": 7119, "AGE": 7120, "rie": 7121, "ĠSouth": 7122, "Ġago": 7123, "_eq": 7124, "adow": 7125, "Ġpred": 7126, "azon": 7127, "æľīçĿĢ": 7128, "æ»´": 7129, "ishing": 7130, "Ġsignificant": 7131, "åĺī": 7132, "çĭĤ": 7133, "æıı": 7134, "ĠSchool": 7135, "Ġdeg": 7136, "check": 7137, "po": 7138, "uge": 7139, "Ġaccording": 7140, "ä¹ı": 7141, "icles": 7142, "oly": 7143, "Ġlonger": 7144, "Ġroad": 7145, "å®¶éĩĮ": 7146, "yles": 7147, "å¹¿åĳĬ": 7148, "å¼ĢæĶ¾": 7149, "Ġ\"\"\"Ċ": 7150, "æ©": 7151, "itchen": 7152, "Ġpolicy": 7153, "Ġtrying": 7154, "âĨ": 7155, "section": 7156, "aves": 7157, "åĲ¸å¼ķ": 7158, "Ġrelated": 7159, "51": 7160, "ĠNational": 7161, "è·Ŀç¦»": 7162, "enced": 7163, "').": 7164, "à¤¿": 7165, "unt": 7166, "ä¼¼ä¹İ": 7167, "èľľ": 7168, "æħ¢æħ¢": 7169, "è¿½æ±Ĥ": 7170, "æĺİçĻ½": 7171, "Change": 7172, "89": 7173, "cell": 7174, "æ¼Ĥ": 7175, "èĩªæĪĳ": 7176, "å¾Ĳ": 7177, "éªĹ": 7178, "aily": 7179, "rs": 7180, "è¯¾ç¨ĭ": 7181, "Ġinfl": 7182, "ensions": 7183, "æ³Ľ": 7184, "ĠAg": 7185, "rupt": 7186, "å¦Ĩ": 7187, "çĵ¶": 7188, "with": 7189, "æĦĪ": 7190, "Ġestab": 7191, "Ġmanufact": 7192, "æ¸ħæ¥ļ": 7193, "Ġer": 7194, "çļĦå·¥ä½ľ": 7195, "é£İæł¼": 7196, "Ġstorage": 7197, "Ġusually": 7198, "bool": 7199, "istor": 7200, "efined": 7201, "acket": 7202, "oder": 7203, "Types": 7204, "Ġsample": 7205, "()ĊĊ": 7206, "çļĦçĶŁæ´»": 7207, "Ġ++": 7208, "Ġhigher": 7209, "æĸĩä»¶": 7210, "è®Ńç»ĥ": 7211, "åħ¬éĩĮ": 7212, "_x": 7213, "SET": 7214, "éĶģ": 7215, "è¶ĭåĬ¿": 7216, ".H": 7217, "çļĦä¸Ģä¸ª": 7218, "èªī": 7219, "(data": 7220, "aven": 7221, "Ġutil": 7222, "Menu": 7223, "ln": 7224, "Ġrisk": 7225, "Ġparty": 7226, "entity": 7227, "æĲľ": 7228, "è®©ä½ł": 7229, "ĠAPI": 7230, "Ã§": 7231, "ãĢģãĢĬ": 7232, "æĬĢèĥ½": 7233, "Ġnote": 7234, "Ġfig": 7235, "Ġthroughout": 7236, ".js": 7237, "Header": 7238, "Ġnecessary": 7239, "parent": 7240, "åĨĴ": 7241, "ONE": 7242, "Ġshall": 7243, "Ġ(*": 7244, "ĠRE": 7245, "Ġopportunity": 7246, "FT": 7247, "gt": 7248, "çĳŀ": 7249, "graph": 7250, "ynt": 7251, "Ġtem": 7252, "ä¸ĭéĻį": 7253, "amily": 7254, "ĠNorth": 7255, "è®¾ç½®": 7256, "current": 7257, "ĉprivate": 7258, "iring": 7259, "ĠPark": 7260, "æľ±": 7261, "Å¡": 7262, "weight": 7263, "CI": 7264, "Ġprojects": 7265, "illed": 7266, "è´¹çĶ¨": 7267, "ç¡®å®ŀ": 7268, "CR": 7269, "å¯¿": 7270, "Ġskin": 7271, "_sub": 7272, "Ġinsurance": 7273, "ĠOpen": 7274, ".âĢĿ": 7275, "ä¸ĭéĿ¢": 7276, "Height": 7277, "Ġnothing": 7278, "Ġlock": 7279, "æīįæĺ¯": 7280, "æ¬£": 7281, "ĠYork": 7282, "èĳ£": 7283, "VAL": 7284, "ĠÐ·": 7285, "é¢Ĺ": 7286, "Ġpretty": 7287, "la": 7288, "imation": 7289, "zero": 7290, "æī£": 7291, "ICE": 7292, "Ġur": 7293, "åħįè´¹": 7294, "è¢ĭ": 7295, "aly": 7296, "Ġfeed": 7297, "Ġmatter": 7298, "uel": 7299, "æĹ¶çļĦ": 7300, "æĻºæħ§": 7301, "ille": 7302, "(R": 7303, "ĉĠ": 7304, "ĠSk": 7305, "åĭ¤": 7306, "hentic": 7307, "Ġpark": 7308, "****************************************************************": 7309, "æīİ": 7310, "Tag": 7311, "Ġwritten": 7312, "Ġuses": 7313, "Ġlicense": 7314, "èĢĹ": 7315, "ĠFOR": 7316, "äºĭä»¶": 7317, "andid": 7318, "ĠCreate": 7319, "bor": 7320, "asc": 7321, "Ġtim": 7322, "Op": 7323, "Cache": 7324, "Ġproduction": 7325, "page": 7326, "à·": 7327, "Ġ:Ċ": 7328, "æ°§": 7329, "Empty": 7330, "ä½įäºİ": 7331, "ĠRem": 7332, ",'": 7333, "ĠMan": 7334, "æľ¬èº«": 7335, "æĭ¼": 7336, "åĨľä¸ļ": 7337, "æĸĩæĺİ": 7338, "ä¾µ": 7339, "Ġlatest": 7340, "æµ®": 7341, "Option": 7342, "Ġ\"\"\"": 7343, "_.": 7344, "èĲ¥éĶĢ": 7345, "è¡£æľį": 7346, "æľīä¸Ģä¸ª": 7347, "éģĵè·¯": 7348, "æĦŁåĪ°": 7349, "52": 7350, "Ġthread": 7351, "aries": 7352, "ros": 7353, "å®ĩ": 7354, "Ġcases": 7355, "_by": 7356, "_ptr": 7357, "));ĊĊ": 7358, "ese": 7359, "Ġchoice": 7360, "åĬłä¸Ĭ": 7361, "èµĦæľ¬": 7362, "ĠØ¯": 7363, "Ġsix": 7364, "Our": 7365, "lim": 7366, ".print": 7367, "åİŁåĪĻ": 7368, "éĽĨä¸Ń": 7369, "Ġcoming": 7370, "æĶ¯ä»ĺ": 7371, "Ġwanted": 7372, "å®¿": 7373, "Ġrecogn": 7374, "ĠRec": 7375, "è£ģ": 7376, "éĻ·": 7377, "hp": 7378, "req": 7379, "éĥĳ": 7380, "Params": 7381, "ĠTrue": 7382, "Ġsec": 7383, "Ġarr": 7384, "Ġcondition": 7385, "vision": 7386, "äºĮåįģ": 7387, "That": 7388, "Ġmix": 7389, "late": 7390, "ç»Ŀå¯¹": 7391, "æ¯ıæ¬¡": 7392, "oman": 7393, "ĠOut": 7394, ">\\": 7395, "Ġavoid": 7396, "ernel": 7397, "çķħ": 7398, "Ġinsp": 7399, "ĠSub": 7400, "ĠÐ½Ð°": 7401, "Ġtree": 7402, "Ġgen": 7403, "Ġunit": 7404, "Ġsound": 7405, "å¾Īéļ¾": 7406, "åĬ²": 7407, "æĦıæĢĿ": 7408, "ooth": 7409, "_EN": 7410, "Ġcommit": 7411, "stant": 7412, "ried": 7413, "ief": 7414, "è§Ī": 7415, ".čĊ": 7416, "è¡ĮçļĦ": 7417, "å¿§": 7418, "Ġleave": 7419, "Ġcause": 7420, "ĠØª": 7421, "çľł": 7422, "Ġrecommend": 7423, "Ġ<-": 7424, "åĨħçļĦ": 7425, "ĠJan": 7426, "ä»¿": 7427, "ycle": 7428, "rown": 7429, "AA": 7430, "Ġshows": 7431, "ĠPre": 7432, "äºĭå®ŀ": 7433, "Equals": 7434, "Ġhit": 7435, "åı¬": 7436, ":(": 7437, "iant": 7438, "éĢĲæ¸Ĳ": 7439, "é©¾é©¶": 7440, "çģ°": 7441, "ç¢İ": 7442, "Ġasync": 7443, "UFF": 7444, "æŃ¤å¤ĸ": 7445, "Ð¾Ð³": 7446, "è¾Ī": 7447, "Ġreading": 7448, "Ġtreatment": 7449, "ä¹Łæ²¡æľī": 7450, "Ġactivities": 7451, "Ġskills": 7452, "Ġpattern": 7453, "å¤Ħäºİ": 7454, "æ¯ķç«Ł": 7455, "æ¡Į": 7456, "CD": 7457, "Ġsales": 7458, "Ġrespect": 7459, "ãĥ³": 7460, "thread": 7461, "hib": 7462, "_I": 7463, "æĶ¹åĸĦ": 7464, "è®°å¾Ĺ": 7465, "Ġeducation": 7466, "çļĦéĩįè¦ģ": 7467, "Ġhappy": 7468, "ĠEm": 7469, "èį¡": 7470, "\":\"": 7471, "%B": 7472, "ä¸įåĨį": 7473, "ĠSec": 7474, "rief": 7475, "yd": 7476, "åľ³": 7477, "ĠBar": 7478, "ç½ĳä¸Ĭ": 7479, "Î¿": 7480, "ä¹¦è®°": 7481, "After": 7482, "+\\": 7483, "Ġmer": 7484, "semb": 7485, "<String": 7486, "alle": 7487, "gn": 7488, "cret": 7489, "Ġrelease": 7490, "Access": 7491, "ĠRep": 7492, "uv": 7493, "Ġaffect": 7494, "IES": 7495, "åľŁåľ°": 7496, "Ġnames": 7497, "Ġvi": 7498, "ä¿Ħ": 7499, "refix": 7500, "æī«": 7501, "å£ģ": 7502, "Ġapproach": 7503, "dk": 7504, "æ§": 7505, "192": 7506, "æĬ¥éģĵ": 7507, "éº¦": 7508, "Ġeasily": 7509, "arter": 7510, "GE": 7511, "è¾£": 7512, "å°¤åħ¶æĺ¯": 7513, "æ·±åľ³": 7514, "è¿ŀç»Ń": 7515, "ĠPe": 7516, "Parameter": 7517, "à¹": 7518, "Ġground": 7519, "Settings": 7520, "é¬": 7521, "å°ĺ": 7522, "Container": 7523, "_SIZE": 7524, "èķ": 7525, "FFFF": 7526, "ä¸ĭåįĪ": 7527, "æĿ°": 7528, "ä¸ĢæĹ¦": 7529, "Ġparts": 7530, "\"));Ċ": 7531, "Load": 7532, "åĽŀå®¶": 7533, "è¿ĲèĲ¥": 7534, "Ġtransform": 7535, "Ġ/**": 7536, "(T": 7537, "éĩįæĸ°": 7538, "atory": 7539, "87": 7540, "_map": 7541, "å¹¶ä¸įæĺ¯": 7542, "iÃ³": 7543, "block": 7544, "Ġkids": 7545, "Ġfix": 7546, "Ġimages": 7547, "éĹ¹": 7548, "Ġheld": 7549, "atur": 7550, "193": 7551, "ĠPlease": 7552, "ÒĽ": 7553, "Ġdrive": 7554, "}\\": 7555, "ãĤĴ": 7556, "Ġwood": 7557, "Ġselected": 7558, "_k": 7559, "çħ®": 7560, "EBUG": 7561, "åºĶå½ĵ": 7562, "aws": 7563, "æĸ½å·¥": 7564, "æĽ´å¤ļçļĦ": 7565, "Ġmaterials": 7566, "Par": 7567, "oph": 7568, "group": 7569, "ØŃ": 7570, "Col": 7571, "åĢ¾": 7572, "\"ãĢģ\"": 7573, "Ġanswer": 7574, "ellow": 7575, "Ġnp": 7576, ".Add": 7577, "Ġsolution": 7578, "VER": 7579, "erve": 7580, "ä½ĵèĤ²": 7581, "Ġdecl": 7582, "Ġarticle": 7583, "å¿ħè¦ģ": 7584, "({Ċ": 7585, "kg": 7586, "åģ¿": 7587, "å®ŀè·µ": 7588, "çħ§çīĩ": 7589, "adem": 7590, "ĠčĊ": 7591, "ç§Ĵ": 7592, "åºŁ": 7593, "Ġround": 7594, "çĶŁçī©": 7595, "æĭľ": 7596, "buf": 7597, "ĠTH": 7598, "éĢĥ": 7599, "åĪĳ": 7600, "Ġpackage": 7601, "é¢ľèī²": 7602, "Ġpractice": 7603, "Ġregion": 7604, "ĠJust": 7605, "ca": 7606, "çŃ¹": 7607, "å°ĸ": 7608, "Ġdirectly": 7609, "irectory": 7610, "çĭ¬ç«ĭ": 7611, "Ġspeed": 7612, "æģĴ": 7613, "à¥ĩ": 7614, "depend": 7615, "æĪĸè®¸": 7616, "Ġaud": 7617, "ĠTR": 7618, "Ġprevent": 7619, "åľ¨è¿Ļ": 7620, "Dep": 7621, "Ġ);ĊĊ": 7622, "Ġsolid": 7623, "å°ıåŃ¦": 7624, "Ġupon": 7625, "Ġpositive": 7626, "apped": 7627, "Ġrepl": 7628, "èĿ": 7629, "ÑĦ": 7630, "å¹¶æ²¡æľī": 7631, "Ġgraph": 7632, ".res": 7633, "Ġrecent": 7634, "é¦Ļæ¸¯": 7635, "æĢĿèĢĥ": 7636, "Bar": 7637, "ĠArray": 7638, "æĦıè§ģ": 7639, "Work": 7640, "Ġcredit": 7641, "åŀĭçļĦ": 7642, "èº«ä¸Ĭ": 7643, "ugg": 7644, "Ġwide": 7645, "aved": 7646, "-up": 7647, "MP": 7648, "event": 7649, "Ġfilm": 7650, "åŃ¤": 7651, "Ġtoken": 7652, ".con": 7653, "Ġreach": 7654, "iment": 7655, "_int": 7656, "åħħæ»¡": 7657, "è®°å½ķ": 7658, "ĠCent": 7659, "ä¸įçĶ¨": 7660, "pi": 7661, "Ġitself": 7662, "_config": 7663, "tot": 7664, "Ġproper": 7665, "Unit": 7666, "ida": 7667, "Stack": 7668, "icens": 7669, "EXT": 7670, "sum": 7671, "å¥³åŃ©": 7672, "reet": 7673, "æĬķèµĦèĢħ": 7674, "Ġsafe": 7675, "è®¾æĸ½": 7676, "åħ¼": 7677, "ç»ĻæĪĳ": 7678, "ç¨ĭåºı": 7679, "èĢģäºº": 7680, "try": 7681, "quare": 7682, "Mon": 7683, "Ġtick": 7684, "Ġvan": 7685, "aling": 7686, "Ġdelete": 7687, "ä¹Į": 7688, "å¹²éĥ¨": 7689, "Ġnumbers": 7690, "ç©ºæ°Ķ": 7691, "Handle": 7692, "éļĨ": 7693, "ĠLO": 7694, "Ġofficial": 7695, "ership": 7696, "Ġtools": 7697, "é»Ħéĩĳ": 7698, "Ġsal": 7699, "Ġps": 7700, "mas": 7701, "Ġgrowth": 7702, "Ġappear": 7703, "ãĤĭ": 7704, "æĪĳå°±": 7705, "æĢģåº¦": 7706, "Ġê": 7707, "åİŁæĿ¥": 7708, "/f": 7709, "do": 7710, "Ġda": 7711, "ĠØ³": 7712, "Ġmount": 7713, "ĠApr": 7714, "Ġinternal": 7715, "åıįåºĶ": 7716, "/**": 7717, "Ġmoment": 7718, "_en": 7719, "rapper": 7720, "Device": 7721, "åİ»å¹´": 7722, "ture": 7723, "_fl": 7724, "æĲŃéħį": 7725, "ä¼¸": 7726, "Ġresid": 7727, "å®ĮåĸĦ": 7728, "Interface": 7729, "Ġcontains": 7730, "è·¨": 7731, "ĠUser": 7732, "augh": 7733, "çī¹æ®Ĭ": 7734, "ä¸Ńåįİ": 7735, "å°ıçļĦ": 7736, "ĠNow": 7737, "åĬ³åĬ¨": 7738, "å½¢è±¡": 7739, "Ġbehind": 7740, "^{": 7741, "illa": 7742, "Ġhon": 7743, "å¥½äºĨ": 7744, "çĲĨå¿µ": 7745, "(P": 7746, "Ġproperties": 7747, "Script": 7748, "rics": 7749, "adio": 7750, "Ġdog": 7751, "ä¸ĸçºª": 7752, "(name": 7753, "ownload": 7754, "chan": 7755, "å¥Ķ": 7756, "éī": 7757, "Ġden": 7758, "ĠĠĠĠĠĠĠĠĊ": 7759, "å®īè£ħ": 7760, "rive": 7761, "Ġeval": 7762, "å¢ŀå¼º": 7763, ".se": 7764, "å²¸": 7765, "ILITY": 7766, "Ġspecified": 7767, "å®¶äºº": 7768, "èĢĮè¨Ģ": 7769, "å¯¹è±¡": 7770, "Ġmodern": 7771, "Json": 7772, "ĠDon": 7773, "æĹ¥åŃĲ": 7774, "Ġintrodu": 7775, "Dir": 7776, "å£°éŁ³": 7777, "ç¬¬ä¸Ģæ¬¡": 7778, "RL": 7779, "Ġill": 7780, "control": 7781, "åĪ©çĽĬ": 7782, "èº«ä»½": 7783, "çĽĪ": 7784, "ä¸¥æł¼": 7785, "None": 7786, "Äį": 7787, "create": 7788, "çªģçł´": 7789, "Store": 7790, "æĹ¥å¸¸": 7791, "Ã¨": 7792, "å½¼": 7793, "_a": 7794, "ĠWeb": 7795, "Configuration": 7796, ".G": 7797, "ĠService": 7798, "æĨ": 7799, "Ġtold": 7800, "ENSE": 7801, "ological": 7802, "-based": 7803, "Ġvariety": 7804, "hs": 7805, "(value": 7806, "é¸Ł": 7807, "æĪĳæĺ¯": 7808, "Ġ('": 7809, "Ġnone": 7810, "ĠUse": 7811, "ä¸»é¢ĺ": 7812, "è¦Ĩ": 7813, "Ġecho": 7814, "Ð½Ñĭ": 7815, "èĭ±éĽĦ": 7816, "Ġ.Ċ": 7817, "è®¤çľŁ": 7818, "Ġtemplate": 7819, "Next": 7820, "åĳĢ": 7821, "è¡¨è¾¾": 7822, "Ġsetting": 7823, "Player": 7824, "å¤§éĩı": 7825, "å¹´é¾Ħ": 7826, "aby": 7827, "Ġstructure": 7828, "ãĢĤãĢĬ": 7829, "float": 7830, "å¸¦çĿĢ": 7831, "Ġdu": 7832, "can": 7833, "éĩĩåıĸ": 7834, "ignment": 7835, "ĠHigh": 7836, "(D": 7837, "æľºåħ³": 7838, "Ġvers": 7839, "Ġnotice": 7840, "Ġamazing": 7841, ".model": 7842, "Ġgoal": 7843, "æĮ¯": 7844, "èĭĹ": 7845, "æ±Ĺ": 7846, "ĠĠĠĠĠĠĠĠĠĠĠĠĠĠĠĠĠĠ": 7847, "Ġworth": 7848, "imp": 7849, "Ġoperation": 7850, "å¤©çļĦ": 7851, "types": 7852, "orch": 7853, "Ø¬": 7854, "inner": 7855, "CON": 7856, "ç»Łä¸Ģ": 7857, "acks": 7858, "Ġcomputer": 7859, "ĠIP": 7860, "Ġcrit": 7861, "Ġbre": 7862, "Ã«": 7863, "å£®": 7864, "iler": 7865, "ÑĢÐµ": 7866, "Ġelements": 7867, "å®ŀéªĮ": 7868, "éĥ½è¦ģ": 7869, "Ġsun": 7870, "åĵªäºĽ": 7871, "term": 7872, "(res": 7873, "Ġtown": 7874, "ASS": 7875, "Ð¸ÑĤ": 7876, "Ġcontribut": 7877, "space": 7878, "qual": 7879, "AULT": 7880, "Ġweeks": 7881, "Ġquickly": 7882, "Ġcolumn": 7883, "åħ´è¶£": 7884, "values": 7885, "elebr": 7886, "Ġimmedi": 7887, "ä¹ĭå¤ĸ": 7888, "ä¹Łè¦ģ": 7889, "ACE": 7890, "è£Ĥ": 7891, "å¢¨": 7892, "angle": 7893, "è§ĦèĮĥ": 7894, "ĠGoogle": 7895, "Ġrender": 7896, "ĠAcc": 7897, "å®ŀåľ¨": 7898, "ĠPres": 7899, "container": 7900, "_init": 7901, "Ġfields": 7902, "instance": 7903, "éĺ³åħī": 7904, "Ġexcell": 7905, "éī´": 7906, "Ġstock": 7907, "æ·±åħ¥": 7908, "å¾Īå¤§": 7909, "ä¸Ĭæ¶¨": 7910, "è¿Ĳè¡Į": 7911, "æ°ı": 7912, "åĳµ": 7913, "åĸ·": 7914, "Ġna": 7915, "çļĦä¸ľè¥¿": 7916, "Ġ}čĊčĊ": 7917, "_tr": 7918, "Bl": 7919, "attern": 7920, "ulti": 7921, "ORM": 7922, "Ġones": 7923, "180": 7924, "å¡«": 7925, "åĿ¦": 7926, "CS": 7927, "Ġmachine": 7928, "çļĨ": 7929, "bc": 7930, "Ġgroups": 7931, "97": 7932, "Ġlooks": 7933, "Ġ),Ċ": 7934, "Ġsil": 7935, "Ġprogress": 7936, "æĿ¥æºĲ": 7937, "ĠáĢ": 7938, "ĉĉĉĉĉĉĉ": 7939, "model": 7940, "è¿«": 7941, "Ġexisting": 7942, "åĵģè´¨": 7943, "Ġcool": 7944, "Ġfailed": 7945, "ç§»åĬ¨": 7946, "æīĵå¼Ģ": 7947, "åĪºæ¿Ģ": 7948, "Ġswe": 7949, "è§Ĥå¯Ł": 7950, "untime": 7951, "ĠWill": 7952, "_string": 7953, "Ġconcern": 7954, "åĲįçļĦ": 7955, "éĶĻè¯¯": 7956, "Current": 7957, "èĭ±åĽ½": 7958, ".core": 7959, "But": 7960, "ëĭ": 7961, "'ve": 7962, "Ġstudent": 7963, "next": 7964, "vents": 7965, "urity": 7966, "èĻ«": 7967, "Ġability": 7968, "æ»ĭ": 7969, "Min": 7970, "èĲ½å®ŀ": 7971, "uate": 7972, "çļĦä¸į": 7973, "ĠStates": 7974, "known": 7975, ".find": 7976, "æľĢå¥½çļĦ": 7977, "Ġproviding": 7978, "overy": 7979, "Lo": 7980, "æĢİæł·": 7981, "stall": 7982, "EP": 7983, "è¿ģ": 7984, "Ġmarketing": 7985, "auth": 7986, "å¤ļäºĨ": 7987, "è´¯": 7988, "items": 7989, "ä¸ĭåİ»": 7990, "Ġseems": 7991, "uses": 7992, "è²Į": 7993, "âĦ": 7994, "ĠCenter": 7995, "æľīæīĢ": 7996, "250": 7997, "ĠArt": 7998, "ĠHis": 7999, "åĬ¨ä½ľ": 8000, "\"),Ċ": 8001, "ffff": 8002, "æĤŁ": 8003, "è¿ĩçļĦ": 8004, "Ġlevels": 8005, "Ġfn": 8006, "den": 8007, "Ġâī¤": 8008, "63": 8009, "æ¤įçī©": 8010, "åĬ¨çī©": 8011, "ci": 8012, "Ġnice": 8013, "åıĳå±ķçļĦ": 8014, "å®¾": 8015, "Ġcross": 8016, "æİĮæı¡": 8017, "Ġcomment": 8018, "ãģĹ": 8019, "ND": 8020, ")\\": 8021, "irth": 8022, "aches": 8023, "åģ·": 8024, "HER": 8025, "Ġdim": 8026, "fin": 8027, "Ġabsolut": 8028, "Ġprograms": 8029, "54": 8030, "#ifdef": 8031, "Ġbooks": 8032, "åī©": 8033, "CRE": 8034, "ixel": 8035, "ä¸ĢæĿ¡": 8036, "ĉconst": 8037, "æķ°åŃĹ": 8038, "ICENSE": 8039, "102": 8040, "Ġactual": 8041, "?:": 8042, "Ġqual": 8043, "ç»ĵå©ļ": 8044, "Ġworked": 8045, "script": 8046, "éĢļå¸¸": 8047, "Ġ});ĊĊ": 8048, "Ġassociated": 8049, "å¹»": 8050, "Sl": 8051, "Ġempty": 8052, "å¹¼åĦ¿": 8053, "ĠVAL": 8054, "Ġdeep": 8055, "Ġremember": 8056, "å¥¹ä»¬": 8057, "ĠĠĠĠĠĠĠĠĠĠĠĠĠĠĠĠĠĠĠĠ": 8058, "Ø§Øª": 8059, "elling": 8060, "Ġpo": 8061, "Ġ:=Ċ": 8062, "{{": 8063, "Ġinternational": 8064, "player": 8065, "_test": 8066, "åıĮæĸ¹": 8067, "çļĦæĸ¹å¼ı": 8068, "è¿ħéĢŁ": 8069, "é¬¼": 8070, "æīĢæľīçļĦ": 8071, "éĢļçŁ¥": 8072, "ç¢°": 8073, "Br": 8074, "criptor": 8075, "æľºåĪ¶": 8076, "ECT": 8077, "Ġdoor": 8078, "Ġcomplex": 8079, "arden": 8080, "Case": 8081, "Ġobtain": 8082, "Î¹": 8083, "æķ°éĩı": 8084, "ĠFalse": 8085, "font": 8086, "top": 8087, "Connection": 8088, "opping": 8089, "åıĺæĪĲ": 8090, ".on": 8091, "false": 8092, "OUN": 8093, "ç§°ä¸º": 8094, "éĥ½èĥ½": 8095, "ç¡®ä¿Ŀ": 8096, "è¯Ħä»·": 8097, ".z": 8098, "Ġeffective": 8099, "Ġmobile": 8100, "Ġdefinit": 8101, "æĬ¥åĲį": 8102, ".$": 8103, "II": 8104, "æĬķåħ¥": 8105, "OST": 8106, "Spec": 8107, "aul": 8108, "è¯´æĺ¯": 8109, "Ġanyone": 8110, "çĺ¦": 8111, "Ġmethods": 8112, "Callback": 8113, "ä»Ķ": 8114, "çī¹åĪ«æĺ¯": 8115, "èĥ½æºĲ": 8116, "åĩĿ": 8117, "åħ¬åħ±": 8118, "Ġlayer": 8119, "arsh": 8120, "çĽ¸æ¯Ķ": 8121, "gan": 8122, "Ġsong": 8123, "write": 8124, "åĿĽ": 8125, "actor": 8126, "æĢĿç»´": 8127, "ala": 8128, "Ġblo": 8129, "uy": 8130, "à¤¿à¤": 8131, "addr": 8132, "å¯¸": 8133, "Ġleading": 8134, "Ġpurchase": 8135, "anagement": 8136, "ades": 8137, "Ø´": 8138, "Ġcosts": 8139, "æĶ¾å¼ĥ": 8140, "æ´Ľ": 8141, "Ġmass": 8142, "æĭĶ": 8143, "auto": 8144, "OK": 8145, "rd": 8146, "èĩ³å°ĳ": 8147, "Ġlives": 8148, "å¹¿å·ŀ": 8149, "Ġdriv": 8150, "æı´": 8151, "ç¨į": 8152, "-sh": 8153, "EFAULT": 8154, "usiness": 8155, "PU": 8156, "ĠPort": 8157, "å®ħ": 8158, "_REG": 8159, "110": 8160, "è¿ĺåľ¨": 8161, "Ġparameters": 8162, "Ġparams": 8163, "å¾Īæľī": 8164, "irit": 8165, "ç±į": 8166, "_NAME": 8167, "ript": 8168, "ç¥ŀç»ı": 8169, "Ġbottom": 8170, "ĠStr": 8171, "Ġbud": 8172, "Ġtrust": 8173, "à¦¾à¦": 8174, "unit": 8175, "Dec": 8176, "Ġmedical": 8177, "Ġ>>": 8178, "åº¦çļĦ": 8179, "rest": 8180, "Ġsense": 8181, "Ġpatients": 8182, "Ġcomponent": 8183, "Ġ{@": 8184, "å¤§éĥ¨åĪĨ": 8185, "è¿Ļå°±æĺ¯": 8186, "Ġ..": 8187, "ç²Ĺ": 8188, "INS": 8189, "avior": 8190, "itable": 8191, "ĠWork": 8192, "ĠRead": 8193, "Ġselection": 8194, "inder": 8195, "ĠNe": 8196, "ç§¦": 8197, "Range": 8198, "ç»ĦæĪĲ": 8199, "è½¯ä»¶": 8200, "Ġfine": 8201, "æľīä»Ģä¹Ī": 8202, "(void": 8203, "Ġchanged": 8204, ":čĊ": 8205, "Ġdatabase": 8206, "Ġcreating": 8207, "module": 8208, "ÖĢ": 8209, "èı²": 8210, "æ±ģ": 8211, "Ġsettings": 8212, "_com": 8213, "Ð¸Ñı": 8214, "éĤ®": 8215, "Ġrecently": 8216, "Ġaverage": 8217, "istics": 8218, "ç©·": 8219, "';ĊĊ": 8220, "Ġlib": 8221, "isf": 8222, "æĮĩæķ°": 8223, "last": 8224, "Ġdidn": 8225, "åįģå¹´": 8226, "è¿ĺä¼ļ": 8227, "Ġep": 8228, "æ®µæĹ¶éĹ´": 8229, "ãĢĭãĢģãĢĬ": 8230, "ĠWindows": 8231, "post": 8232, "iam": 8233, "/h": 8234, "aign": 8235, "æıĴ": 8236, "å¤º": 8237, "anger": 8238, "plete": 8239, "cing": 8240, "éĶĭ": 8241, ".*": 8242, "åįĩçº§": 8243, "è¿ĺèĥ½": 8244, "Ġbi": 8245, "ä»¤äºº": 8246, "Port": 8247, "Ġdoesn": 8248, "æĪĳä¸į": 8249, "Ġple": 8250, "æĪ¿åŃĲ": 8251, "å±ħæ°ĳ": 8252, "enge": 8253, "ico": 8254, "æĦŁæŁĵ": 8255, "itude": 8256, "Last": 8257, "Ġcas": 8258, "æĪĳåľ¨": 8259, "Ġtouch": 8260, "é¥®é£Ł": 8261, "å·¥åħ·": 8262, "53": 8263, "{\"": 8264, ".cpp": 8265, "å§ľ": 8266, "});Ċ": 8267, "Integer": 8268, "ä¸ŃåĮ»": 8269, "éĩįè§Ĩ": 8270, "Ġfunctions": 8271, "Ġdoc": 8272, "_back": 8273, "Ġdirection": 8274, "Reference": 8275, "62": 8276, "èµĸ": 8277, "ç«¹": 8278, "_log": 8279, "ç¢į": 8280, "Ġball": 8281, "ĠAR": 8282, "æĬĳ": 8283, "åı¯èĥ½ä¼ļ": 8284, "åįıä¼ļ": 8285, "åĩºæĿ¥çļĦ": 8286, "èĤ¡ä»½": 8287, "çĽĳçĿ£": 8288, "Ġwel": 8289, "ĠGroup": 8290, "é«ĺéĢŁ": 8291, "åĨħéĥ¨": 8292, "å®ŀåĬĽ": 8293, "æ²ŁéĢļ": 8294, "å±ķç¤º": 8295, "XX": 8296, "Ġexception": 8297, "Ġlines": 8298, "_TR": 8299, "éļ¾ä»¥": 8300, "éħįç½®": 8301, "sec": 8302, "ĉĉĊ": 8303, "ç»ıçĲĨ": 8304, "Ġmsg": 8305, "ivery": 8306, "å¹³åĿĩ": 8307, "å¨±ä¹Ĳ": 8308, "åĩºçīĪ": 8309, "attle": 8310, "edic": 8311, "æĹº": 8312, "strong": 8313, "Ġign": 8314, "ĠMc": 8315, "Ġscale": 8316, "éĥģ": 8317, "å¤§å¤ļæķ°": 8318, "Ġfresh": 8319, ")/": 8320, "æĳĩ": 8321, ".put": 8322, "éħįåĲĪ": 8323, "à§į": 8324, "âĢĻd": 8325, "gl": 8326, "æĭĴ": 8327, "Ġchalleng": 8328, "ä¼į": 8329, "çľŁæĺ¯": 8330, "åĲįåŃĹ": 8331, "æĪĳè¯´": 8332, "Ġcollect": 8333, "fa": 8334, "Ġasked": 8335, "æĿľ": 8336, "è§Ĵåº¦": 8337, "si": 8338, "æĿ¥åĪ°": 8339, "_PRO": 8340, "Column": 8341, "Ġdigital": 8342, "å§»": 8343, "åĵªéĩĮ": 8344, "ncy": 8345, "æķĻæİĪ": 8346, "LS": 8347, "Ġequipment": 8348, "ayers": 8349, "ä¹ĭéĹ´çļĦ": 8350, "Widget": 8351, "æ¢°": 8352, "æĵ¦": 8353, "åĩºåİ»": 8354, "Ġbank": 8355, "ä»įçĦ¶": 8356, "Rect": 8357, "åħĦ": 8358, "æī°": 8359, "Ġattempt": 8360, "itect": 8361, "Ġ],Ċ": 8362, "mission": 8363, "å¯º": 8364, "_is": 8365, "Ġreference": 8366, "Ġhor": 8367, "Ġscript": 8368, "_node": 8369, "Ġdoesn't": 8370, "512": 8371, "Ġgreen": 8372, "_code": 8373, "py": 8374, "ATH": 8375, "Ġgives": 8376, "like": 8377, "åħ¬å¼Ģ": 8378, "allback": 8379, "Ġstat": 8380, "Ð¸Ðº": 8381, "å¹³æĹ¶": 8382, "èĤ©": 8383, "Ġmeeting": 8384, "æĭħå¿ĥ": 8385, "anges": 8386, "çĤ¸": 8387, "outer": 8388, "}ĊĊĊ": 8389, "Ġprefer": 8390, "ĠHT": 8391, "incip": 8392, "ĠFrom": 8393, "gor": 8394, "button": 8395, "ä¹Łå°±": 8396, "Ġil": 8397, "Ġsummer": 8398, "ä¼¯": 8399, "HECK": 8400, "è®©æĪĳä»¬": 8401, "éĢĨ": 8402, "æĹ¶å°ļ": 8403, "Ġstarting": 8404, "éĩįå¤§": 8405, "rel": 8406, "éķ¿çļĦ": 8407, "å¼Ħ": 8408, "èĽĭçĻ½": 8409, "èĦ¾": 8410, "ĠAustral": 8411, "åģļçļĦ": 8412, "QU": 8413, "Ġplant": 8414, "Ġhair": 8415, "False": 8416, "ç»Ļä½ł": 8417, "Return": 8418, "83": 8419, "acement": 8420, "ĠOct": 8421, "å¤ªéĺ³": 8422, "æİ¥è§¦": 8423, "_dir": 8424, "ĠUK": 8425, "æĳ¸": 8426, "à¯": 8427, "çĲĨæĥ³": 8428, "è¡°": 8429, "å°½ç®¡": 8430, "æ¯Ķä¾ĭ": 8431, "Ġ]Ċ": 8432, "Ġdecision": 8433, "æ³ķéĻ¢": 8434, "åĲĲ": 8435, "_SH": 8436, "äºı": 8437, "Ġbyte": 8438, "(pro": 8439, "ĠĠĠĠĠĠĠĠĠĠĠĠĠĠĠĠĠĠĠĠĠĠĠĠĠĠĠĠĠĠĠĠĠĠĠ": 8440, "Ġfavorite": 8441, "Ġimm": 8442, "ĠAD": 8443, "å¤ļå¹´": 8444, "åħĪè¿Ľ": 8445, "æ£Ģæµĭ": 8446, "à§įà¦": 8447, "ä¸ŃåĽ½çļĦ": 8448, "éŃĤ": 8449, "ĠAS": 8450, "åīĳ": 8451, "Me": 8452, "hest": 8453, "Ġchance": 8454, "ĠAng": 8455, "æ·ĺ": 8456, "vas": 8457, "Ġraise": 8458, "à´¿": 8459, "åĪ¤æĸŃ": 8460, "het": 8461, "(true": 8462, "Ġnamespace": 8463, "Ġdom": 8464, "åĪ©æ¶¦": 8465, "Ġimplied": 8466, "èį¯çī©": 8467, "è·ĥ": 8468, "åĲ¹": 8469, "Ġresolution": 8470, "çķª": 8471, "pliance": 8472, "ifest": 8473, "_CH": 8474, "çłĶåıĳ": 8475, "æ¦Ĥå¿µ": 8476, "_U": 8477, "omb": 8478, "ĠApril": 8479, "Ġfully": 8480, "params": 8481, "osed": 8482, "éªĳ": 8483, "Ġsem": 8484, "estamp": 8485, "çļĦéĤ£": 8486, "çļĦæĸ¹æ³ķ": 8487, "UES": 8488, "Ġsale": 8489, "pha": 8490, "Ġchannel": 8491, "Obj": 8492, "Ġconsole": 8493, "é¢Ħéĺ²": 8494, "ĠCounty": 8495, "ĠPRO": 8496, "abc": 8497, "æ¦ľ": 8498, "æŃ¤æ¬¡": 8499, "request": 8500, "Ġwar": 8501, "å¤įæĿĤ": 8502, "ĠPol": 8503, "itch": 8504, "è®°å¿Ĩ": 8505, "IGHT": 8506, "avy": 8507, "Ġkitchen": 8508, "Ġhol": 8509, "Ġtransfer": 8510, "vey": 8511, "åıĤèĢĥ": 8512, "Ġut": 8513, "ĠWITHOUT": 8514, "éĻĦè¿ĳ": 8515, "Ġmut": 8516, "å¾Īå¿«": 8517, "Ġinvolved": 8518, "æį·": 8519, "è½¨": 8520, "âĶĢ": 8521, "ĠReturns": 8522, "////////////////////////////////": 8523, "Ġexam": 8524, "look": 8525, "GB": 8526, "_cast": 8527, "Ġgir": 8528, "PR": 8529, "vg": 8530, "first": 8531, "API": 8532, "Ġseek": 8533, "Ġsuccessful": 8534, "èĭ±è¯Ń": 8535, "èĬĤçĽ®": 8536, "ĠAc": 8537, "_ERROR": 8538, "uth": 8539, "Hash": 8540, "acebook": 8541, "Am": 8542, "Ġ\"/": 8543, "ÓĻ": 8544, "ĠVersion": 8545, "å°º": 8546, "Ġslow": 8547, "ĠDate": 8548, "exp": 8549, "ĠÑĥ": 8550, "Enc": 8551, "å§¿": 8552, "åĽŀæĿ¥": 8553, "etime": 8554, "Ġrequirements": 8555, "Ġhighly": 8556, "ĠText": 8557, "Ġprec": 8558, "otion": 8559, "Ġpiece": 8560, "Ġorganization": 8561, "æĪĲçĨŁ": 8562, "register": 8563, "Ġcelebr": 8564, "Ġallowed": 8565, "Ġmid": 8566, "_UN": 8567, "æĿĨ": 8568, "ĠForm": 8569, "ç¯®": 8570, "Ġinj": 8571, "ãĢĤãĢĲ": 8572, "çľĭæĿ¥": 8573, "ä¸Ģå®ļçļĦ": 8574, "-e": 8575, "æľĢä½³": 8576, "Ġlibrary": 8577, "èĢħçļĦ": 8578, "Render": 8579, "(-": 8580, "ims": 8581, "ham": 8582, "Search": 8583, "asic": 8584, "-ch": 8585, "Ġbenefits": 8586, "cr": 8587, "æıĲéĨĴ": 8588, "Ġattention": 8589, "æŁ±": 8590, "Ġencour": 8591, "åĽŀåĪ°": 8592, "Ġassist": 8593, ";;": 8594, "61": 8595, "âŁ": 8596, "å¤©æ°Ķ": 8597, "ĠThen": 8598, "èµĦæł¼": 8599, "è£ħä¿®": 8600, "Ġnational": 8601, "é¢Ī": 8602, "Ġflag": 8603, "çĶŁç´ł": 8604, "(j": 8605, "Ġseg": 8606, "æľĪä»½": 8607, "Ġshape": 8608, "Ġextrem": 8609, "STR": 8610, "acc": 8611, "ä¹ĥ": 8612, "iding": 8613, "æĻĴ": 8614, "éĹª": 8615, "Ġplayers": 8616, "Values": 8617, "Ab": 8618, "Ġhelps": 8619, "è½»æĿ¾": 8620, "191": 8621, "å½ĵåīį": 8622, "æĭĨ": 8623, "å¥ı": 8624, "ãģŁ": 8625, "åħ¬å®ī": 8626, "ournal": 8627, "ien": 8628, "ĠIt's": 8629, "Ġparameter": 8630, "Ġax": 8631, "common": 8632, "ALSE": 8633, "expected": 8634, "tk": 8635, "Ġson": 8636, "è§£éĩĬ": 8637, "*)": 8638, "æ¯ıå¹´": 8639, "æĺĮ": 8640, "She": 8641, "âĤĤ": 8642, "dom": 8643, "Ġactivity": 8644, "Ġyou're": 8645, "quals": 8646, "ja": 8647, "ipping": 8648, "ĠChar": 8649, "(L": 8650, "å¥½åĥı": 8651, "pond": 8652, "ä¼ı": 8653, "Execut": 8654, "Ġthemselves": 8655, "Do": 8656, "Helper": 8657, "Ġpers": 8658, "èį·": 8659, "ç²Ĵ": 8660, "å¤ļç§į": 8661, "æĸĩåŃĹ": 8662, "72": 8663, "Ġdescrib": 8664, "Session": 8665, "äººçī©": 8666, "çĽĳç®¡": 8667, "frame": 8668, "Ġmodels": 8669, "ä¸Ģå®¶": 8670, "è·¯ä¸Ĭ": 8671, "Can": 8672, "ĠGL": 8673, "Ġbath": 8674, "Ġfa": 8675, "Ñį": 8676, "Project": 8677, "_read": 8678, "æ¾³": 8679, "åįģäºĮ": 8680, "Ġ[\"": 8681, "byte": 8682, "Ġguest": 8683, "190": 8684, "è£¤": 8685, "ĠWhile": 8686, "Ġ};ĊĊ": 8687, "ĠDay": 8688, "mi": 8689, "Ġplans": 8690, "Ġwrong": 8691, "çļĦåİŁåĽł": 8692, "(!": 8693, "çĶµèĦĳ": 8694, "Ġwire": 8695, "è´¡": 8696, "åĿ¡": 8697, "inger": 8698, "Ġsolutions": 8699, "èħĶ": 8700, "æĪĳä¹Ł": 8701, "ĠâŁ": 8702, "è´·æ¬¾": 8703, "<<": 8704, "Ġconsist": 8705, "ç½²": 8706, "Ġlost": 8707, "ĠAir": 8708, "ä¾ĽåºĶ": 8709, "à½": 8710, "Î½": 8711, "android": 8712, "iture": 8713, "ipped": 8714, "å¾Ĵ": 8715, "åľ¨äºİ": 8716, "è¾ī": 8717, "Ġfloor": 8718, "æĻ¶": 8719, "130": 8720, "å®ļçļĦ": 8721, "usb": 8722, "Ġten": 8723, "fd": 8724, "Ġautomatic": 8725, "è¿Ľè¡ĮäºĨ": 8726, "Properties": 8727, "OMP": 8728, "ç»¿èī²": 8729, "Ġcountries": 8730, "Ġgiving": 8731, "ĠRob": 8732, "Ġdaily": 8733, "NT": 8734, "First": 8735, "neg": 8736, "edef": 8737, "æĢ§èĥ½": 8738, "Cell": 8739, "arts": 8740, "äººå£«": 8741, "æĮĩåĩº": 8742, "åħ¬åı¸çļĦ": 8743, "æ±¡æŁĵ": 8744, "Ġfunc": 8745, "ni": 8746, "icensed": 8747, "osition": 8748, "dest": 8749, "orig": 8750, "åĬŀçĲĨ": 8751, "æ¸ł": 8752, "eps": 8753, "çĬ¶åĨµ": 8754, "ABILITY": 8755, "BO": 8756, "ĠMarch": 8757, "å¿ł": 8758, "ĠSw": 8759, "BC": 8760, "æıĲåīį": 8761, "æĪĴ": 8762, "admin": 8763, "ä½ĵçİ°": 8764, "äºķ": 8765, "æĶ¯æĴĳ": 8766, "Ġexpert": 8767, "ĠLa": 8768, "Ġdiscover": 8769, ".cn": 8770, "images": 8771, "ä¹ĭä¸Ń": 8772, "))ĊĊ": 8773, "ians": 8774, "Ġapplications": 8775, "Ġconstant": 8776, "åĳ³éģĵ": 8777, "ä¸ĬéĿ¢": 8778, "EO": 8779, "æ¢¦æĥ³": 8780, "Ġsafety": 8781, "å²ģçļĦ": 8782, "åıĳåĬ¨": 8783, "Ġlisten": 8784, "çĥĤ": 8785, "Are": 8786, "æĭĵ": 8787, "Ð´Ð°": 8788, "èĢģæĿ¿": 8789, "çĤ¹åĩ»": 8790, "vant": 8791, "------------": 8792, "åŁºåľ°": 8793, "ĠÙģ": 8794, "hold": 8795, "AST": 8796, "/w": 8797, "æµħ": 8798, "çº¤": 8799, "perature": 8800, "Ġmorning": 8801, "_le": 8802, "çĪ½": 8803, "Ġrent": 8804, "å©ļå§»": 8805, "èī¯å¥½çļĦ": 8806, "_on": 8807, "ilename": 8808, "ĠAug": 8809, "æ¤Ĵ": 8810, "å¼Ģå¿ĥ": 8811, "çĹĽèĭ¦": 8812, "Ġmodify": 8813, "MAIN": 8814, "ĠMap": 8815, "å¸¸è§ģ": 8816, "ula": 8817, "Icon": 8818, "å¹¿å¤§": 8819, "Ġexcellent": 8820, "Tree": 8821, "vec": 8822, "prise": 8823, "atives": 8824, "åħ¬åĽŃ": 8825, "ä¸ĭäºĨ": 8826, ".read": 8827, "ban": 8828, "Impl": 8829, "nes": 8830, "ãģ¯": 8831, "Ġcareer": 8832, "æĸĩåŃ¦": 8833, "çļĦæĦŁè§ī": 8834, "Ġreturned": 8835, "æŁľ": 8836, "ç»ıåħ¸": 8837, "éĿĴå¹´": 8838, "å¤±è´¥": 8839, "_len": 8840, "++;Ċ": 8841, ".txt": 8842, "Ġ'@": 8843, "æĺİæĺŁ": 8844, "Ġheader": 8845, "ãģ§": 8846, "arant": 8847, "åĩłå¹´": 8848, "Ġrestaur": 8849, "ato": 8850, "è¸ı": 8851, "elay": 8852, "ĠException": 8853, "Ġinteresting": 8854, "sqrt": 8855, "Ġgoes": 8856, "èĥĸ": 8857, "AV": 8858, "ondon": 8859, "queue": 8860, "edding": 8861, "Ġparents": 8862, "za": 8863, "ĠNS": 8864, "å¼ºçļĦ": 8865, "Ġmention": 8866, "å²Ĺä½į": 8867, "Ġpan": 8868, "Ġgets": 8869, "ociety": 8870, "æ®ĸ": 8871, "æŀª": 8872, "comes": 8873, "è¿Ł": 8874, "å°±ä¸ļ": 8875, "ĠStud": 8876, "_error": 8877, "è¿ĺåı¯ä»¥": 8878, "å¹³æĸ¹": 8879, "Ġowner": 8880, "Õ¸": 8881, "Iter": 8882, "Ġtele": 8883, "ç»Łè®¡": 8884, "åľ¨è¿ĻéĩĮ": 8885, "ĠDis": 8886, "å§ĳ": 8887, "totype": 8888, "Ġdb": 8889, "ĠTime": 8890, "Ġcallback": 8891, "çļĦä½ľçĶ¨": 8892, "Ġconfiguration": 8893, "è°ĭ": 8894, "Ġfurn": 8895, "âĤģ": 8896, "Ġsaw": 8897, "åİŁæĸĩ": 8898, "Ġlegal": 8899, "=>": 8900, "Ġnga": 8901, "åŀĥ": 8902, "ya": 8903, "osing": 8904, "Å¾": 8905, "å·¥èµĦ": 8906, "Ġmenu": 8907, "Ġing": 8908, "éĥ½æ²¡æľī": 8909, "Ġsus": 8910, "Ð»Ð°": 8911, "Ġdeath": 8912, "èĤĮèĤ¤": 8913, "bum": 8914, "Ġjson": 8915, "æľŁå¾ħ": 8916, "æŀĿ": 8917, "åľ¾": 8918, "then": 8919, "ercial": 8920, "has": 8921, "ä¸įå¦Ĥ": 8922, "æĦŁè°¢": 8923, "åįĥä¸ĩ": 8924, "kit": 8925, "åłĨ": 8926, "åŀĥåľ¾": 8927, "åĶ¯ä¸Ģ": 8928, "ç²®": 8929, "Ġpool": 8930, "agment": 8931, "road": 8932, "æľŁçļĦ": 8933, "å§ĭç»Ī": 8934, "çħ¤": 8935, "ĠHealth": 8936, "Ġcompletely": 8937, "Ġappropri": 8938, "PM": 8939, "çºµ": 8940, "ĠTV": 8941, "(false": 8942, "Ġproced": 8943, "arrant": 8944, "æĽ´å¥½": 8945, "æĢ¨": 8946, "Ð½Ð°": 8947, "_user": 8948, "Location": 8949, "rial": 8950, "email": 8951, "Ġpassed": 8952, "ä½ľä¸ļ": 8953, "ä¾ĭå¦Ĥ": 8954, "è½¦åŀĭ": 8955, "æŃ£æĺ¯": 8956, "Ġanalysis": 8957, "å°½éĩı": 8958, "second": 8959, "creen": 8960, "Ġok": 8961, "Use": 8962, ".map": 8963, "iate": 8964, "+b": 8965, "Ġconsum": 8966, "Ġrandom": 8967, "Ġpicture": 8968, "Ġbasic": 8969, "Ġcharg": 8970, "Ġcan't": 8971, "while": 8972, "æĸ¤": 8973, "Record": 8974, "Ġessential": 8975, "urg": 8976, "çİ°åľ¨çļĦ": 8977, "LECT": 8978, "store": 8979, "é©±": 8980, "Ġdecided": 8981, "æ¼ı": 8982, "force": 8983, "Ġsens": 8984, "Ġphotos": 8985, "çīµ": 8986, "-year": 8987, "Ġbytes": 8988, "Args": 8989, "Ġpages": 8990, "å·¥èīº": 8991, "wood": 8992, "ĠName": 8993, "_sc": 8994, "$Ċ": 8995, "è¿ĲçĶ¨": 8996, "Ġtab": 8997, "ĠTO": 8998, "ĠSept": 8999, "Ġotherwise": 9000, "Ġmulti": 9001, "peed": 9002, "Ġdirectory": 9003, "Ġfrequ": 9004, "Ġdecor": 9005, "æľīæĹ¶": 9006, "Ġcontain": 9007, "ä¼Ļä¼´": 9008, "Ġcommercial": 9009, "Ġtrain": 9010, "impl": 9011, "Ġaltern": 9012, "Ke": 9013, "çİ¯ä¿Ŀ": 9014, "å«Į": 9015, "çİ»": 9016, "æĢ»ç»ĵ": 9017, "Ġstreng": 9018, "çºł": 9019, "Ġplanning": 9020, "é¥±": 9021, "ĠAny": 9022, "Ġstage": 9023, "Eng": 9024, "ĠBuild": 9025, "è§ĤçĤ¹": 9026, "çİ©å®¶": 9027, "æľµ": 9028, "ASK": 9029, "ï¿": 9030, "fc": 9031, "ĠColor": 9032, "101": 9033, ")).": 9034, "å§Ĩ": 9035, "åħ·å¤ĩ": 9036, "ĠÐ³": 9037, "Ġ})Ċ": 9038, "ora": 9039, "allow": 9040, "åľ¨è¿Ļä¸ª": 9041, "Left": 9042, "å½»åºķ": 9043, "Ġmyself": 9044, "ario": 9045, "Ġconsult": 9046, "Description": 9047, "SSERT": 9048, "target": 9049, "Ġneigh": 9050, "çĽ¾": 9051, "nb": 9052, "iation": 9053, "æĹĭ": 9054, "acters": 9055, "=True": 9056, "Ġplaying": 9057, "æµĻ": 9058, "Ġprices": 9059, "ĠSan": 9060, "çļĦç¾İ": 9061, "å¤©çĦ¶": 9062, "çĵ¦": 9063, "ĠMus": 9064, "æī¿æĭħ": 9065, "æľīå¾Īå¤ļ": 9066, "æĽ¼": 9067, "ĠAmerica": 9068, "IME": 9069, "/L": 9070, "ÅŁ": 9071, "åĳ¼åĲ¸": 9072, "ç»ĻäºĪ": 9073, "åĬłå·¥": 9074, "length": 9075, "åĲ¸æĶ¶": 9076, "})Ċ": 9077, "Ġdrink": 9078, "lem": 9079, "Ġlimited": 9080, "strict": 9081, "Ġprofile": 9082, "Ġachieve": 9083, "orary": 9084, "ä»ĸè¯´": 9085, "Ġtrip": 9086, "æķĪçİĩ": 9087, "åĲ¨": 9088, "ĠInit": 9089, "ifi": 9090, "apan": 9091, "ç¢Ĺ": 9092, "ORE": 9093, "Ġdise": 9094, "åİ¨": 9095, ");čĊčĊ": 9096, "Ġfinally": 9097, "ÙĪØ±": 9098, "ĠBrit": 9099, "Ġfirm": 9100, "Ġconvert": 9101, "ãģĦ": 9102, "ä¸įä½ı": 9103, "åįĬå¹´": 9104, "gorith": 9105, "command": 9106, "ITE": 9107, "Dialog": 9108, "NULL": 9109, "Äģ": 9110, "Space": 9111, "å¹²åĩĢ": 9112, "éĺ²æŃ¢": 9113, "Ġinform": 9114, "_for": 9115, "æŃ¤æĹ¶": 9116, "Ġ&&Ċ": 9117, "Ġdevices": 9118, "æİ¨å¹¿": 9119, "æ¸©åº¦": 9120, "Ġconcept": 9121, "Ġhuge": 9122, "lose": 9123, "Ġpush": 9124, "Ġsteps": 9125, "åħ¬å¸ĥ": 9126, "_CL": 9127, "ĠCr": 9128, "ĠHome": 9129, "éĿĴæĺ¥": 9130, "çĬ¹": 9131, "ĠĠĠĠĠĠĠĠĠĠĠĠĠĠĠĠĠĠĠĠĠĠĠĠĠ": 9132, "81": 9133, "PP": 9134, "åģļæ³ķ": 9135, "å¼ºè°ĥ": 9136, "Ġpassword": 9137, "Ġrequires": 9138, "Account": 9139, "_y": 9140, "Ġsupported": 9141, "Ġshared": 9142, "ography": 9143, "Ġconsidered": 9144, "ç»ĺ": 9145, "\\t": 9146, "è¿ĩäºĨ": 9147, "Ġgold": 9148, "aled": 9149, "ç±»åŀĭ": 9150, "Api": 9151, "Ġspeak": 9152, "Ġinstruction": 9153, "èĥĮæĻ¯": 9154, "alar": 9155, "haps": 9156, "æĦıåĳ³": 9157, "ĠSO": 9158, "ĠEnglish": 9159, "%;Ċ": 9160, "æĭ³": 9161, "ĠMicrosoft": 9162, "Ġroll": 9163, "Ġinnov": 9164, "Ġsites": 9165, "æ»¡æĦı": 9166, "ĠAssoci": 9167, "romise": 9168, "ç¼´": 9169, "endar": 9170, "Ġenable": 9171, "(F": 9172, "ĠKey": 9173, "ĠSch": 9174, "éĿ¢åīį": 9175, "Ġwish": 9176, "avax": 9177, "ĠValue": 9178, "UID": 9179, "ĠHouse": 9180, "è¡Ģç®¡": 9181, "æģ°": 9182, "Ġmeasure": 9183, "Ø²": 9184, "Ġhour": 9185, "ME": 9186, "/lic": 9187, ".net": 9188, ".write": 9189, "ĠInternational": 9190, "]ĊĊ": 9191, "Ġdriver": 9192, "äººåľ¨": 9193, "åĨľæ°ĳ": 9194, "åĩ¤": 9195, "Ġcore": 9196, "ulate": 9197, ")ĊĊĊ": 9198, "å¹¿ä¸ľ": 9199, "omic": 9200, "èĢĢ": 9201, "_pr": 9202, "åģļäºĨ": 9203, "å¿Į": 9204, "Ġtraditional": 9205, "Ġled": 9206, "ota": 9207, "Ġphysical": 9208, "å®ı": 9209, "ĠEast": 9210, "agram": 9211, "çĽĨ": 9212, "MENT": 9213, ".Is": 9214, "show": 9215, "plicit": 9216, "-M": 9217, "_,": 9218, "ãģ¨": 9219, "èĭ¹": 9220, "æĮĩæłĩ": 9221, "thern": 9222, "çĴĥ": 9223, "access": 9224, "æĪĲå°±": 9225, "åĪĨä¸º": 9226, "æĭĽèģĺ": 9227, "Ġobs": 9228, "åĭĴ": 9229, "Ġhands": 9230, ".php": 9231, ".type": 9232, "çĶŁæ´»ä¸Ń": 9233, "ĠFirst": 9234, "CESS": 9235, "etimes": 9236, "ĠAfr": 9237, "Enabled": 9238, "-a": 9239, "ä¸Ģè¾¹": 9240, ".out": 9241, "nap": 9242, "æĪ¿åľ°äº§": 9243, "style": 9244, "160": 9245, "ä½¿å¾Ĺ": 9246, "Ġadjust": 9247, "çļĦä¸Ģç§į": 9248, "Ġplaces": 9249, "à§ĩ": 9250, "DS": 9251, "æĭĸ": 9252, "å¤ļä¸ª": 9253, "ç³Ĭ": 9254, "Ġdrop": 9255, "_err": 9256, "Ġrout": 9257, "ç»´æĬ¤": 9258, "_url": 9259, "åľ°ä½į": 9260, "à¤°": 9261, "Ġcontainer": 9262, "Ident": 9263, "Ġdeveloped": 9264, "çĺ¤": 9265, "illing": 9266, "ä½ĵçļĦ": 9267, "å§Ķåĳĺä¼ļ": 9268, "å±±ä¸ľ": 9269, "è§ĦåĪĻ": 9270, "ĠMore": 9271, "reation": 9272, "ĠHere": 9273, "enty": 9274, "ĠMath": 9275, "æĺ¾å¾Ĺ": 9276, "çĸ²": 9277, "ĠDav": 9278, "eb": 9279, "Ġtour": 9280, "æĶ¶çĽĬ": 9281, "ictionary": 9282, "ä¹Łå¾Ī": 9283, "ataset": 9284, "Ġwarm": 9285, "ãģ¦": 9286, "iÃ³n": 9287, "ancy": 9288, "ĠAlso": 9289, "Ġreserved": 9290, "èĩ³äºİ": 9291, "Ġdark": 9292, "åĩłå¤©": 9293, "åħĥç´ł": 9294, "ilies": 9295, "heme": 9296, "imately": 9297, "çļĦå½±åĵį": 9298, "à¦¿": 9299, "ä¸Ī": 9300, "é©»": 9301, "Ġrules": 9302, "å¥ī": 9303, "|Ċ": 9304, "ĠDirect": 9305, "andler": 9306, "çĽ´åĪ°": 9307, ".\\": 9308, "çĬ¯ç½ª": 9309, "åĲ¦åĪĻ": 9310, "æľ¬æĿ¥": 9311, "å¯»æī¾": 9312, "Ġconstruction": 9313, "çļĦåĲĮæĹ¶": 9314, "çľŁæŃ£çļĦ": 9315, "Ġdifference": 9316, "Ġpriv": 9317, "_object": 9318, "ĠMake": 9319, "uple": 9320, "ring": 9321, "åŃ©åŃĲä»¬": 9322, "Sign": 9323, "Ġà¨": 9324, "ĠView": 9325, "izations": 9326, "å¤©ä¸ĭ": 9327, "/l": 9328, "æ¢¯": 9329, "Core": 9330, "æ´ª": 9331, "åĲĥé¥Ń": 9332, "æĤ¦": 9333, "Ġinline": 9334, "èĭ¹æŀľ": 9335, "extern": 9336, "ä¸Ĭåįĩ": 9337, "è§Ĥä¼Ĺ": 9338, "Ġnature": 9339, "Rel": 9340, "Bytes": 9341, "ĠVALUES": 9342, "Title": 9343, "insert": 9344, "Ġiter": 9345, "Ġsou": 9346, "_mode": 9347, "__(": 9348, "åĮĢ": 9349, "æĻ¯åĮº": 9350, "itute": 9351, "_num": 9352, ".sub": 9353, "Ġcop": 9354, "ibly": 9355, "ields": 9356, "ĠJune": 9357, "æ°Ľ": 9358, "æŃ»äº¡": 9359, "address": 9360, "Ġje": 9361, "çŃīå¾ħ": 9362, ".sc": 9363, "Ġcompleted": 9364, "Ġpurpose": 9365, "åį±éĻ©": 9366, "èĤª": 9367, ".path": 9368, "annels": 9369, "Ġ*/čĊ": 9370, "å°±æľī": 9371, "dc": 9372, "Post": 9373, "Ġmoving": 9374, "ç©´": 9375, "åĲ¯åĬ¨": 9376, "ä¸įèµ·": 9377, "å°ĳå¹´": 9378, "_iff": 9379, "Ġaware": 9380, "éĥ½åı¯ä»¥": 9381, "æĸ¹éĿ¢çļĦ": 9382, "å¿ĹæĦ¿": 9383, "Ġserious": 9384, "Ġsometimes": 9385, "qq": 9386, "bon": 9387, "Ġinterested": 9388, "èĦĤèĤª": 9389, "Storage": 9390, "æ³Ħ": 9391, "Ġ{\"": 9392, "èĴ¸": 9393, "æľºåĻ¨": 9394, "Ġsleep": 9395, "Ġbul": 9396, "Ġcategory": 9397, "æīĭæ®µ": 9398, "å¹³è¡¡": 9399, "ä»İäºĭ": 9400, "é¼ĵåĬ±": 9401, "wx": 9402, "Ġforce": 9403, "ç¨Ģ": 9404, "ĠGerm": 9405, "*Ċ": 9406, "ĠIndia": 9407, "mut": 9408, "å¤§æ¦Ĥ": 9409, "èĢĮä¸į": 9410, "Ġprimary": 9411, "transform": 9412, "Let": 9413, "Dis": 9414, "èī¾": 9415, "FS": 9416, "Ġsatisf": 9417, "Ġhear": 9418, "ä¼ĺè´¨": 9419, "çĸı": 9420, "ĠHer": 9421, ",-": 9422, "ĠCode": 9423, "æĥ³æ³ķ": 9424, "çľĭè§ģ": 9425, "Ġvehicle": 9426, "+c": 9427, "åĩ¯": 9428, "PH": 9429, "Channel": 9430, "æĴŀ": 9431, "éĤĢ": 9432, "AIL": 9433, "rame": 9434, "å¸ħ": 9435, "/j": 9436, "èµĶ": 9437, "isions": 9438, "Ġpartners": 9439, "è¿ĩæĿ¥": 9440, "Ġtowards": 9441, "Ġcache": 9442, "æĺ¯æľī": 9443, "ĠLet": 9444, "çī¢": 9445, "ĠLondon": 9446, "Ġblue": 9447, "Ġmeas": 9448, "åĩºåı£": 9449, "());ĊĊ": 9450, "ĠÙĦ": 9451, "Ġglass": 9452, "Ġdamage": 9453, "Ġwarrant": 9454, "ycl": 9455, "æĮĳæĪĺ": 9456, "RT": 9457, "=%": 9458, "va": 9459, "åĪ°çļĦ": 9460, "(k": 9461, ".Set": 9462, "åħ¬ä¼Ĺ": 9463, "è¡¨éĿ¢": 9464, "Ġdry": 9465, "FE": 9466, "Ġrock": 9467, "æĺ¯æĪĳ": 9468, "Debug": 9469, "èİ±": 9470, "ĠHar": 9471, "ĠOf": 9472, "Ġtests": 9473, "\";ĊĊ": 9474, "ä¸įå¤Ł": 9475, "Ġ!==": 9476, "Ġfair": 9477, ".test": 9478, "çĭ¬çī¹": 9479, "atio": 9480, "åĽŀçŃĶ": 9481, "æĢĴ": 9482, "})": 9483, "âŁ©": 9484, "_start": 9485, "è¿Ļä½į": 9486, ",b": 9487, "éĢĤåºĶ": 9488, "çĥ¤": 9489, "åĽĬ": 9490, "åĩĮ": 9491, "çĲ´": 9492, "Ġemployees": 9493, "Ġaf": 9494, "zer": 9495, "SL": 9496, "å¾®åįļ": 9497, "ington": 9498, "ç»´çĶŁç´ł": 9499, "æĹ¶åĪ»": 9500, "éĥŃ": 9501, "Ġâī¥": 9502, "Ġspend": 9503, "ustr": 9504, "Ġexactly": 9505, "zy": 9506, "æ¼Ĥäº®": 9507, "Ġbecame": 9508, "Ġcarry": 9509, "Host": 9510, "ague": 9511, "Ġcast": 9512, "Ġheat": 9513, "æ¬§æ´²": 9514, "ĠINTO": 9515, "ä¼ĳæģ¯": 9516, "æł·åŃĲ": 9517, "96": 9518, "%%%%": 9519, "éĽķ": 9520, "è§Ĵèī²": 9521, "_{": 9522, "Ġhistor": 9523, "à±": 9524, "hood": 9525, ".V": 9526, "Ġgar": 9527, "Custom": 9528, "Ġconduct": 9529, "äººåı£": 9530, "éĻĲåĪ¶": 9531, "iny": 9532, "ificate": 9533, "å²©": 9534, "èĢģåħ¬": 9535, "Â°": 9536, "ĠOption": 9537, "åįıè®®": 9538, "å¼ķå¯¼": 9539, "process": 9540, "æĥ³è±¡": 9541, "ober": 9542, "ATUS": 9543, "device": 9544, "Ġthinking": 9545, "ĠKe": 9546, "æľ¬æ¬¡": 9547, "Items": 9548, "account": 9549, "rought": 9550, "å¸¸å¸¸": 9551, "_text": 9552, "-top": 9553, "Îµ": 9554, "æµĭè¯ķ": 9555, "è®¨è®º": 9556, "variable": 9557, "èĸª": 9558, "è¯ģåĪ¸": 9559, "(function": 9560, "ĠCons": 9561, "èĶ¬": 9562, "ĠCall": 9563, "Ġstuff": 9564, "å¤ļæ¬¡": 9565, "å°Ĩä¼ļ": 9566, "æīĢåľ¨": 9567, "ç½Ĺæĸ¯": 9568, "Ġsym": 9569, "Write": 9570, "Sec": 9571, "å¸ĤåľºçļĦ": 9572, "Ġtransport": 9573, "Úº": 9574, "Ġbegan": 9575, "urt": 9576, "ĠProject": 9577, "åĨħå¿ĥ": 9578, "ĠChina": 9579, "aught": 9580, "ĠBlack": 9581, "lying": 9582, "gar": 9583, "å¾ªçİ¯": 9584, "ĠTechn": 9585, "Expression": 9586, "UC": 9587, "Ú¯": 9588, "Ġguide": 9589, "IV": 9590, "çĽ¸åºĶ": 9591, "OUR": 9592, "æ¯ıä¸Ģä¸ª": 9593, ">&": 9594, "istribut": 9595, "ìĹ": 9596, "ä¸¤äºº": 9597, "??": 9598, "è¯´è¯Ŀ": 9599, "Ġ(_": 9600, "åĩıèĤ¥": 9601, "Fin": 9602, "-time": 9603, "Co": 9604, "æĪĲåĪĨ": 9605, "ç²īä¸Ŀ": 9606, "ç²ĺ": 9607, "Ġobjects": 9608, "(B": 9609, "çĨŁæĤī": 9610, "Ġexpand": 9611, "Ġsurface": 9612, "fix": 9613, "ä¹Łèĥ½": 9614, "ucture": 9615, "èİ²": 9616, "_plus": 9617, "ï¿½": 9618, "':Ċ": 9619, "Ġplus": 9620, "ipeline": 9621, "è¯»ä¹¦": 9622, "ĠError": 9623, "áĢ¬": 9624, "Ġcampaign": 9625, "sembly": 9626, "ĠÃ©": 9627, "hr": 9628, "é¢Ħè®¡": 9629, "orge": 9630, "Ġ'\\": 9631, "è¶³å¤Ł": 9632, "å·¡": 9633, "éĤ£æł·": 9634, "Ġreduce": 9635, "èı©": 9636, "Ġbusinesses": 9637, "æĿŃ": 9638, "82": 9639, "||": 9640, "Ġcharge": 9641, "plies": 9642, "æĪĲåĳĺ": 9643, "Ġphoto": 9644, "æĪĲæŀľ": 9645, "arp": 9646, "çĶŁéķ¿": 9647, ")->": 9648, "_MAX": 9649, "Que": 9650, "Ġinflu": 9651, "è¿ĽæŃ¥": 9652, "Each": 9653, "Ãº": 9654, "è¡Įæĥħ": 9655, "DA": 9656, "IGN": 9657, "èĢĥçĶŁ": 9658, "Ġrot": 9659, "åĴĸ": 9660, "Ġprem": 9661, "Ġclasses": 9662, "hi": 9663, "Ġupdated": 9664, "Product": 9665, "Ġsmart": 9666, "Ġformer": 9667, "åĪ©äºİ": 9668, "çĲĨçĶ±": 9669, "plet": 9670, "Changed": 9671, "Ġcandid": 9672, "Ġdrug": 9673, "phone": 9674, "éĤ£éĩĮ": 9675, "Ġband": 9676, "æĥĳ": 9677, "INSERT": 9678, "ialize": 9679, "Ġfinish": 9680, "awn": 9681, "èĥ½éĩı": 9682, "ØĮ": 9683, "Ġ[[": 9684, "áŀ": 9685, "Byte": 9686, "ç»ĦåĲĪ": 9687, "éĻ¶": 9688, "Ġ/>Ċ": 9689, "é£ĺ": 9690, "Ġcounter": 9691, "äºĭæķħ": 9692, "è¯±": 9693, "Ġcamera": 9694, ".a": 9695, "ä¸´åºĬ": 9696, "æĲº": 9697, "Ûķ": 9698, "Ġshown": 9699, "Ġadvant": 9700, "åĮ»åŃ¦": 9701, "_per": 9702, "Ġmaster": 9703, "æĻĭ": 9704, "Ġliter": 9705, "æĮĸ": 9706, "ki": 9707, "dp": 9708, "long": 9709, "Ġparse": 9710, "æ²Ī": 9711, "inux": 9712, "Ġbudget": 9713, "èģª": 9714, "å¥½å¥½": 9715, "æĮ¡": 9716, "ERSION": 9717, "åį§": 9718, "å¤ªå¤ļ": 9719, "ãģĻ": 9720, "Ġexerc": 9721, "ĠServices": 9722, "Ġwonderful": 9723, "ä¸Ģä»¶": 9724, "æģ¨": 9725, "''": 9726, "æĪĺäºī": 9727, "oday": 9728, "sv": 9729, "ä¸¤ç§į": 9730, "Dr": 9731, "ech": 9732, "ITION": 9733, "Ġhous": 9734, "åĩºçĶŁ": 9735, "åĪ¶å®ļ": 9736, "utils": 9737, "ÐµÐ¼": 9738, "Ġmaximum": 9739, ".text": 9740, "Ġopportunities": 9741, "Ġsold": 9742, "å½ĵä¸Ń": 9743, "amm": 9744, "å·¥ä½ľçļĦ": 9745, "Ġbound": 9746, "Ġinf": 9747, "Ġbasis": 9748, "Ġfab": 9749, "é«ĺåº¦": 9750, "ecause": 9751, "ĠIT": 9752, "icks": 9753, "Ġsupply": 9754, "ä½©": 9755, "ĠÙĨ": 9756, "ÏĦ": 9757, "700": 9758, "ĠĠĠĠĠĠĠĠĠĠĠĠĠĠĠĠĠĠĠĠĠĠĠĠĠĠĠĠĠĠĠĠĠĠĠĠĠĠĠĠĠĠĠĠĠĠĠĠĠĠĠĠĠĠĠĠĠĠĠĠĠĠĠĠ": 9759, "Ġhy": 9760, "ACT": 9761, "_ADDR": 9762, "Ġundefined": 9763, "iform": 9764, "ĠApache": 9765, "allet": 9766, "Ġsituation": 9767, "Ġaspect": 9768, "æĺ¯æľĢ": 9769, "witter": 9770, "/re": 9771, "Names": 9772, "Ġnullptr": 9773, "ä¸¢": 9774, "MC": 9775, "Ġdeb": 9776, "Ġhealthy": 9777, "×¨": 9778, "åı°æ¹¾": 9779, "Template": 9780, "Ġprop": 9781, "à©": 9782, "ovember": 9783, "æľīä¸ª": 9784, "Ġoptim": 9785, "è¯ĳ": 9786, "amples": 9787, "æĢ§æł¼": 9788, "Edit": 9789, "æģ¼": 9790, "çĲĥéĺŁ": 9791, "éģµ": 9792, "cat": 9793, "_class": 9794, "grade": 9795, "_array": 9796, "å¹´ä»£": 9797, "èī³": 9798, "ĠAssert": 9799, "Ġvert": 9800, "åĬłå¿«": 9801, "Ġindividuals": 9802, "è¡¥åħħ": 9803, "Ð¾ÑĤ": 9804, "ä¸Ĭåİ»": 9805, "Ġhash": 9806, "lier": 9807, "Ġearn": 9808, "å¹¿æ³Ľ": 9809, "ancel": 9810, "å¼¯": 9811, "ä¸īå¹´": 9812, "Reader": 9813, ")^": 9814, "ĠDec": 9815, "å¾·åĽ½": 9816, "otes": 9817, "Ġdefinitely": 9818, "è¿Ļæ¬¾": 9819, "---Ċ": 9820, "Ġsymbol": 9821, "WS": 9822, "Ġsha": 9823, "ĠChristmas": 9824, "Ġstress": 9825, "ç¬¬äºĶ": 9826, "case": 9827, "ÑĢÐ¸": 9828, "Ġviol": 9829, "æ¯ıä¸ªäºº": 9830, "Ġ\",": 9831, "èĪ°": 9832, "æ»ļ": 9833, "éĨī": 9834, "ements": 9835, "å®ŀéĻħä¸Ĭ": 9836, "_addr": 9837, "Ġemerg": 9838, "iling": 9839, "Ġorigin": 9840, "éĿ¢ä¸´": 9841, "ste": 9842, "ych": 9843, "Ġgrowing": 9844, "360": 9845, "çľĭèµ·æĿ¥": 9846, "åī²": 9847, ".new": 9848, "method": 9849, "Exp": 9850, "ĠBook": 9851, "çİ»çĴĥ": 9852, "å¿ĥæĥħ": 9853, "Ins": 9854, "arily": 9855, ".J": 9856, "Sk": 9857, "ç¼ºä¹ı": 9858, "Õ«": 9859, "Ġ\"Ċ": 9860, "undle": 9861, "Ġí": 9862, "æħĪ": 9863, "è¿Ĳè¾ĵ": 9864, "éĢ¼": 9865, "çĻ»è®°": 9866, "ODO": 9867, "Ġbeginning": 9868, ".cont": 9869, "ĠHel": 9870, "èĤļ": 9871, "æ¶µ": 9872, "çļĦä¸»": 9873, "_device": 9874, "Ġsoft": 9875, "Ag": 9876, "æ³¨åĨĮ": 9877, "ä¸Ĭä¸Ģ": 9878, "MT": 9879, "Ġunderstanding": 9880, "ĠSim": 9881, "Ġcalcul": 9882, "che": 9883, "Ġalign": 9884, "main": 9885, "Loc": 9886, "Ġregarding": 9887, "/licenses": 9888, "ĠPost": 9889, "åħ¶å®ĥ": 9890, "ä¸įåľ¨": 9891, "æºª": 9892, "DC": 9893, "mat": 9894, "sequ": 9895, "çī©æµģ": 9896, "Msg": 9897, "ederal": 9898, "Ġcharacters": 9899, "IVE": 9900, "\"><": 9901, "ä¼łæĴŃ": 9902, "El": 9903, "Ġindepend": 9904, "ĠCour": 9905, "Ġnav": 9906, "urrency": 9907, "ÐµÐº": 9908, "Ġstates": 9909, "inn": 9910, "ä¸ŃéĹ´": 9911, "]]": 9912, "ĠMr": 9913, "ĠWar": 9914, "Ġsets": 9915, "template": 9916, "åķĨåĬ¡": 9917, "Ġhab": 9918, "asy": 9919, "fit": 9920, "_table": 9921, "ä¸¾åĬŀ": 9922, "ĠÐ¶": 9923, "å°ıè¯´": 9924, "ĉu": 9925, "Ġord": 9926, "(id": 9927, "Http": 9928, "Parameters": 9929, "ä¸ĢåĲį": 9930, ".ui": 9931, "Ġshop": 9932, "ĠAre": 9933, "_status": 9934, "Ġappropriate": 9935, "Ġserve": 9936, "ordin": 9937, "ocker": 9938, "Ġgas": 9939, "Ġeasier": 9940, "ç«Ļåľ¨": 9941, "cember": 9942, "Ð½Ð¾": 9943, "91": 9944, "æľºæ¢°": 9945, "ĠFacebook": 9946, "Ġmiddle": 9947, "çļĦæľĭåıĭ": 9948, "çĮĽ": 9949, "á»": 9950, "åĲĦåľ°": 9951, "Ġdream": 9952, "èĳ¡": 9953, "è¾ŀ": 9954, "ĠAtt": 9955, "Ġreleased": 9956, "Collection": 9957, "çļĦåīį": 9958, "Ġmedic": 9959, "æ¶īåıĬ": 9960, "éĤ£ç§į": 9961, "Ġicon": 9962, "ç»ĻäºĨ": 9963, "ä»ĬæĹ¥": 9964, "Ġanim": 9965, "å¤§ä¼ļ": 9966, "Ġgoals": 9967, "çľī": 9968, "ĠĠĠĠĠĠĠĠĠĠĠĠĠĠĠĠĠĠĠĠĠĠ": 9969, "ĠDel": 9970, "Ġcalls": 9971, "_DIR": 9972, "oms": 9973, "Â»": 9974, "_out": 9975, "ĉr": 9976, "Flags": 9977, "ä¸įæĥ³": 9978, "åīįçļĦ": 9979, "cb": 9980, "iforn": 9981, "Ġpayment": 9982, "_u": 9983, "ç²¾å½©": 9984, "Ġeat": 9985, "ometry": 9986, "åŀĤ": 9987, "Ġbuf": 9988, "èµ·äºĨ": 9989, "Ġstack": 9990, "åĲ«æľī": 9991, "éĶ»": 9992, "èİ·åıĸ": 9993, "Variable": 9994, "gb": 9995, "çĨĬ": 9996, "Ġenh": 9997, "Err": 9998, "é¡ºåĪ©": 9999, "å¥Ī": 10000, ":\\": 10001, "Ġoperations": 10002, "PD": 10003, "Ġimag": 10004, "ires": 10005, "number": 10006, "Root": 10007, "ĠDesign": 10008, "Ġdead": 10009, "åħģ": 10010, "Ġclub": 10011, "Ġposted": 10012, "ĠCL": 10013, "èŀįèµĦ": 10014, "Ġrule": 10015, "ano": 10016, "ä»ĸåľ¨": 10017, "ĠâŁ¨": 10018, "ĠSeptember": 10019, "framework": 10020, "Ġgenerate": 10021, "76": 10022, "Ġbirth": 10023, "çĽ¸åĲĮ": 10024, "more": 10025, "ura": 10026, "oded": 10027, "ÂŃ": 10028, "æ¡Ĥ": 10029, "Ġarriv": 10030, ",ðŁ": 10031, "é¥¼": 10032, "_mem": 10033, "Ġimmediately": 10034, "ä¿¡å¿ĥ": 10035, "ç±»ä¼¼": 10036, "çļĦæĥħåĨµä¸ĭ": 10037, "atalog": 10038, "Ġfelt": 10039, "ä¸Ģè·¯": 10040, "Ġstatement": 10041, "ä¸ĬåįĪ": 10042, "Ġnumer": 10043, "çĹķ": 10044, "Ang": 10045, "Ġbenefit": 10046, "Ġbelie": 10047, "Now": 10048, "Ġedge": 10049, "Ġvector": 10050, "ç¥¥": 10051, "è£Ļ": 10052, "çŀ¬": 10053, "åıĳè¡¨": 10054, "éĶ¦": 10055, "(ctx": 10056, "mem": 10057, "Ġmask": 10058, "èĩªä¸»": 10059, "Body": 10060, "çĹħæ¯Ĵ": 10061, "æ¸¸å®¢": 10062, "ä¸ĭè·Į": 10063, "YS": 10064, "shot": 10065, "åĳ¨åĽ´": 10066, "part": 10067, "æĤ¬": 10068, "ror": 10069, "PECT": 10070, "æ¸©æļĸ": 10071, "ĠCompany": 10072, "resource": 10073, "_j": 10074, "æĭįæĳĦ": 10075, "here": 10076, "å¯Ħ": 10077, "éĽ¾": 10078, "Ġesc": 10079, "ospital": 10080, "åĲ¬åĪ°": 10081, "æĦıåĳ³çĿĢ": 10082, "Ġ\\\"": 10083, ")))Ċ": 10084, "Ġinvestment": 10085, "Ġjud": 10086, "Ġspr": 10087, "Ġhotel": 10088, "Ġdedic": 10089, "è£ħé¥°": 10090, ".as": 10091, "ç´§å¼ł": 10092, "Ġeffects": 10093, "ester": 10094, "äººæ°ĳå¸ģ": 10095, "ĠProgram": 10096, "Ġassess": 10097, "Ġgift": 10098, "æĤł": 10099, "Ġtmp": 10100, "ĠSund": 10101, "çĽ¸äºĴ": 10102, "straint": 10103, "éľ¸": 10104, "æħİ": 10105, "éľľ": 10106, "ĠÂ«": 10107, "ĠJes": 10108, "ä¹Ļ": 10109, "(get": 10110, "++)Ċ": 10111, "ho": 10112, "Ġzero": 10113, "ĠNote": 10114, "overn": 10115, "æĥħæĦŁ": 10116, "_lo": 10117, "ĠOver": 10118, "æ°´æŀľ": 10119, "ç¼Ŀ": 10120, "ita": 10121, "ĠMac": 10122, "74": 10123, "åı¹": 10124, "éŃħ": 10125, "iced": 10126, "æĪĲéĥ½": 10127, "riend": 10128, "åı¯è§ģ": 10129, "ä¹Łåľ¨": 10130, "éŁ©åĽ½": 10131, "rench": 10132, "à´¿à´": 10133, "peat": 10134, "Ġio": 10135, "è¯Ħè®º": 10136, "_at": 10137, "æ¸łéģĵ": 10138, "ĠEvery": 10139, "Ġpet": 10140, "Ġflags": 10141, "èĳ±": 10142, "æłı": 10143, "tee": 10144, "porate": 10145, "ĠJanuary": 10146, "ĠEvent": 10147, "åĪļåĪļ": 10148, "è°Ĳ": 10149, ".ch": 10150, "Ġaccur": 10151, "EE": 10152, "é½¿": 10153, "_block": 10154, "ãĢĤĊ": 10155, "Ġcompliance": 10156, "Delete": 10157, "abilities": 10158, "_lock": 10159, "ä¸²": 10160, "Ġpal": 10161, "ĠJuly": 10162, "å¾Īå¥½çļĦ": 10163, "Ġjavax": 10164, "ĠMet": 10165, "#Ċ": 10166, "/M": 10167, "åĲĦç±»": 10168, "Ġpictures": 10169, "Ġerrors": 10170, "ĠDOMAIN": 10171, "ç¬¬ä¸Ģä¸ª": 10172, "æĽ¹": 10173, "anner": 10174, "Only": 10175, "æ³Į": 10176, "çĵ·": 10177, "Ġdegree": 10178, "çĩ¥": 10179, "ä¸ŃåŃ¦": 10180, "Ġgreater": 10181, "sem": 10182, "ford": 10183, "æľ¬äºº": 10184, "æĬĬæı¡": 10185, "IA": 10186, "Ø·": 10187, "éĵľ": 10188, "dec": 10189, "ndef": 10190, ",c": 10191, "æĶ¾åħ¥": 10192, "æ¡Īä»¶": 10193, "Panel": 10194, "Activity": 10195, "Ġguarant": 10196, "çĶŁæ´»çļĦ": 10197, "ounce": 10198, "ĠCustom": 10199, "éĿ©åĳ½": 10200, "åĳĪçİ°": 10201, "Ġmaybe": 10202, "SH": 10203, "æĪĳè§īå¾Ĺ": 10204, "Ġmill": 10205, "Ġdro": 10206, "áģ": 10207, "License": 10208, "append": 10209, "begin": 10210, "dis": 10211, "æĽ´æĸ°": 10212, "ĠPresident": 10213, "Ġstrategy": 10214, "ä¸Ģåľº": 10215, "och": 10216, "onstr": 10217, "Real": 10218, "Ġfamilies": 10219, "Ġpaint": 10220, "Ġalloc": 10221, "ĠWARRANTIES": 10222, "Ġpull": 10223, "ä»İæĿ¥": 10224, "è¿ĳæĹ¥": 10225, "Ġargument": 10226, "ĠMich": 10227, "Ġpaid": 10228, "ä¸»å¸Ń": 10229, "ä»°": 10230, "92": 10231, "Ġ\"%": 10232, "ĠMod": 10233, "èĥĢ": 10234, "{\\": 10235, "Ã£": 10236, "ç«ĭåį³": 10237, "Ġpressure": 10238, "iques": 10239, "Async": 10240, "ãĤ¹": 10241, "]:": 10242, "Øµ": 10243, "æĲ¬": 10244, "ĠSH": 10245, "Ġactions": 10246, "ä¸Ĭä¸ĭ": 10247, "Ġtheme": 10248, "ĉw": 10249, "Ġoperator": 10250, "ĠMag": 10251, "Ġdomain": 10252, "Ġcopyright": 10253, "_from": 10254, "Ġaward": 10255, "çĻ¾å§ĵ": 10256, "call": 10257, "èµĭ": 10258, "ĠMost": 10259, "ä¼ĺæĥł": 10260, "UFFIX": 10261, "Display": 10262, "èµĽåŃ£": 10263, "oving": 10264, "è´Łè´£äºº": 10265, "Ġns": 10266, "åıįæĺł": 10267, "yt": 10268, "Ġdefine": 10269, "å¹´åº¦": 10270, "Ġreported": 10271, "Ġ\"<": 10272, "Parent": 10273, ".println": 10274, "Ġregul": 10275, ")]Ċ": 10276, "Ġinternet": 10277, "ĠAugust": 10278, "+%": 10279, "rier": 10280, "Ġip": 10281, "111": 10282, "Òĵ": 10283, "Ġtemperature": 10284, "éħ±": 10285, "Ġtrade": 10286, "Layer": 10287, "æĪĲäº¤": 10288, "ker": 10289, "à¤¤": 10290, "èĲĦ": 10291, "legal": 10292, "é«ĺèĢĥ": 10293, "çľĭäºĨ": 10294, "Match": 10295, "Ġblood": 10296, "Ð¾Ð¹": 10297, "Ġtesting": 10298, "å®Įç¾İ": 10299, "æķ°åŃ¦": 10300, "çļĦåŁºç¡Ģ": 10301, "Ãª": 10302, "Õ¥": 10303, "çĹĺ": 10304, "ifornia": 10305, "çī¹å¾ģ": 10306, "ugins": 10307, "åıįå¼¹": 10308, "ogg": 10309, "Global": 10310, "åĬŀåħ¬å®¤": 10311, "CLUD": 10312, "Ġculture": 10313, "Ġisn": 10314, "Ġctx": 10315, "èĳ¡èĲĦ": 10316, "ç»ĨèĬĤ": 10317, "è´¢å¯Į": 10318, "olf": 10319, "èĪĴéĢĤ": 10320, "çİ¯èĬĤ": 10321, "Ġsurround": 10322, "Ge": 10323, "à«": 10324, "ä¼ģä¸ļçļĦ": 10325, "è´¡çĮ®": 10326, "BJ": 10327, "åİī": 10328, "ocr": 10329, "grid": 10330, "è¡Ģæ¶²": 10331, "tml": 10332, "æ¼Ķåĳĺ": 10333, "Ġdistance": 10334, "Ġattr": 10335, "Ġspent": 10336, "ĠOctober": 10337, "åİŁæĸĩåľ°åĿĢ": 10338, "å¸Ĥæ°ĳ": 10339, "Ġoffering": 10340, "èĢĮä¸įæĺ¯": 10341, ".has": 10342, "å¼ķåıĳ": 10343, "èĩŃ": 10344, "å©´": 10345, "Ġmeaning": 10346, "Ò£": 10347, "é©¬ä¸Ĭ": 10348, "çŃĸçķ¥": 10349, "æįŁå¤±": 10350, "åľ¨çº¿": 10351, "ums": 10352, "EG": 10353, "Ġdress": 10354, "å®ļä½į": 10355, "ĠVis": 10356, "Ġeye": 10357, "æľīæ²¡æľī": 10358, "åľ¨æĪĳ": 10359, "Document": 10360, "Right": 10361, "Ó©": 10362, "Ġproduce": 10363, "make": 10364, "(err": 10365, "äººå®¶": 10366, "Red": 10367, "è´¸æĺĵ": 10368, "å°ıåĮº": 10369, "Vert": 10370, "æīįä¼ļ": 10371, ".key": 10372, "OC": 10373, "éĢłåŀĭ": 10374, "Ġdemand": 10375, "æĪĸæĺ¯": 10376, "æĬĽ": 10377, "Ġrates": 10378, "Lock": 10379, "åı¯èĥ½æĺ¯": 10380, "Ġfinished": 10381, "Ġcomponents": 10382, "ĠRuss": 10383, "ĠFriday": 10384, "ĠDepartment": 10385, "Ġdelivery": 10386, "å¿ĥä¸Ń": 10387, "èĳ£äºĭ": 10388, "ãģĮ": 10389, "Ġoverall": 10390, "(key": 10391, "éģĵçĲĨ": 10392, "doc": 10393, "cons": 10394, "çĩķ": 10395, "Ð¸Ð¹": 10396, "orial": 10397, "Graph": 10398, "åĲĦä¸ª": 10399, "Ġenv": 10400, "æ¯ģ": 10401, "å®ł": 10402, "Ġnut": 10403, "_op": 10404, "Ġauth": 10405, "edit": 10406, "Step": 10407, "èī°": 10408, "è¢Ń": 10409, "integr": 10410, "metadata": 10411, "Ġprep": 10412, "Ġtal": 10413, "aml": 10414, "å¤§å°ı": 10415, "éĴ»": 10416, "ĠJapan": 10417, "è®©ä»ĸ": 10418, "åĮħè£ħ": 10419, "Ġ'/": 10420, "æĺ¨å¤©": 10421, "è½´": 10422, "å¸ĥå±Ģ": 10423, "åħ¬è·¯": 10424, "ertain": 10425, "Ġapplicable": 10426, "å¦»åŃĲ": 10427, "æİ¨åĩº": 10428, "125": 10429, ".sqrt": 10430, "ael": 10431, "(\"%": 10432, "Ġattack": 10433, "ĠStreet": 10434, "NA": 10435, "_mod": 10436, "Const": 10437, "åĵ²": 10438, "Operation": 10439, "ä½łä¼ļ": 10440, "returns": 10441, "execut": 10442, "è¿ŀæİ¥": 10443, "Head": 10444, "ä¼ĺåĮĸ": 10445, "ifications": 10446, "Ġcolors": 10447, "_offset": 10448, "USE": 10449, "å¼¥": 10450, "éħ·": 10451, "ĠØ¹": 10452, "Ġscore": 10453, "rome": 10454, "Ġcash": 10455, "Ġbroad": 10456, "åľ¨ä¸ŃåĽ½": 10457, "stack": 10458, "ç«ŁçĦ¶": 10459, "ĠConfig": 10460, "ĠKing": 10461, "æµĻæ±Ł": 10462, "Ġrev": 10463, "å¾Īå¤§çļĦ": 10464, "éĺĶ": 10465, "lements": 10466, "çŁĽ": 10467, "-Ċ": 10468, "Policy": 10469, "MB": 10470, "å¤«å¦»": 10471, "73": 10472, "pite": 10473, "æŃ¦æ±ī": 10474, "itation": 10475, "Application": 10476, "ç¬¬åįģ": 10477, "å´ĩ": 10478, "Ġagreed": 10479, "è´¢æĶ¿": 10480, "double": 10481, "Õ¶": 10482, "çªģåĩº": 10483, "Ġcapital": 10484, "ws": 10485, "ĠOb": 10486, "Ġinsert": 10487, "je": 10488, "Please": 10489, "zure": 10490, "Ġgave": 10491, "åľ¨æŃ¤": 10492, "áĢ¯": 10493, "Ġdir": 10494, "è´ª": 10495, "_version": 10496, "ĠĠĠĠĠĠĠĠĠĠĠĠĠĠĠĠĠĠĠĠĠĠĠĠ": 10497, "agon": 10498, "ashion": 10499, "ĠDevelop": 10500, "éļıåĲİ": 10501, "é£ŁçĶ¨": 10502, "Active": 10503, "æľīæĹ¶åĢĻ": 10504, "Ġarguments": 10505, "åĪĽä½ľ": 10506, "ounced": 10507, "è¯¦ç»Ĩ": 10508, ">();Ċ": 10509, "Long": 10510, "Ġinterview": 10511, "ä¸»è¦ģæĺ¯": 10512, "Ġnamed": 10513, "Ġresponsible": 10514, "åĪ«çļĦ": 10515, "è¿Ŀæ³ķ": 10516, "åıĤæķ°": 10517, "pute": 10518, "ĠGo": 10519, "Ġtried": 10520, "Ġdidn't": 10521, "ĠAnt": 10522, "andard": 10523, "allery": 10524, "åįĹäº¬": 10525, "unning": 10526, "_SET": 10527, "Ġpen": 10528, "Ġbey": 10529, "94": 10530, "çĶµåĬ¨": 10531, "Ġprovider": 10532, "å®ĺæĸ¹": 10533, "ĠTop": 10534, "ria": 10535, "ãĥ¼ãĥ": 10536, "ĠBusiness": 10537, "-C": 10538, "äººå·¥": 10539, "åīª": 10540, "æŁ³": 10541, "-v": 10542, "************************************************************************": 10543, "åıĶ": 10544, "aming": 10545, "Ġcab": 10546, "ĠON": 10547, "ä¼Ĺå¤ļ": 10548, "æĤĶ": 10549, "å½ĵå¹´": 10550, "bin": 10551, "æĪĳè¦ģ": 10552, "è½¦çļĦ": 10553, "Ġadvert": 10554, "(null": 10555, "Ġterr": 10556, "aints": 10557, "ä¸ĢçĶŁ": 10558, "duc": 10559, "éĩįåºĨ": 10560, "Rule": 10561, "åĮĸåŃ¦": 10562, "ĠNovember": 10563, "åĩĨç¡®": 10564, "Net": 10565, "æī©å¤§": 10566, "Ġpair": 10567, "è§Ħå¾ĭ": 10568, "åģļåĩº": 10569, "foo": 10570, "Network": 10571, "Ġfeeling": 10572, "ä¸Ģæł·çļĦ": 10573, "=\\\"": 10574, "DR": 10575, "Ġremain": 10576, "èĩ³ä»Ĭ": 10577, "71": 10578, "Ġbeyond": 10579, ".I": 10580, "Ġmonitor": 10581, "Ð°Ñģ": 10582, "Ġpolitical": 10583, "VM": 10584, "arrow": 10585, "Ġdetermine": 10586, "]+": 10587, "æ·»åĬł": 10588, "ologies": 10589, "ç¢ĳ": 10590, "åį°è±¡": 10591, "æİĴåĲį": 10592, "ĠBase": 10593, "åįıè°ĥ": 10594, "ĠOther": 10595, "ä¸ĵéĹ¨": 10596, "rev": 10597, "Metadata": 10598, "Ġincreasing": 10599, "ä¸Ģä»½": 10600, "apply": 10601, "ç¨¿": 10602, "çĤī": 10603, "Ġlargest": 10604, "Ġbalance": 10605, "Ġloved": 10606, "-left": 10607, "[:": 10608, "ä¸°å¯ĮçļĦ": 10609, "å¤ĸçļĦ": 10610, "éĺŁä¼į": 10611, "Ġha": 10612, "ä¸įå¤ļ": 10613, "lished": 10614, "Ãł": 10615, "ynch": 10616, "è°±": 10617, "åĸĬ": 10618, "Ġnorm": 10619, "Repository": 10620, "Ġschools": 10621, "Engine": 10622, "Ð°Ð²": 10623, ".un": 10624, "Ġadult": 10625, "èĬ³": 10626, "å¤§åŀĭ": 10627, "ervation": 10628, "scription": 10629, "holder": 10630, "ä¹Łæ²¡": 10631, "Mark": 10632, "åĲĪéĢĤ": 10633, "Font": 10634, "ifying": 10635, "'.": 10636, "Ġcompl": 10637, "Ġgrand": 10638, "Ġoffered": 10639, "Bit": 10640, "ronic": 10641, "å°±ç®Ĺ": 10642, "Ġfeet": 10643, "ourney": 10644, ".)": 10645, "esome": 10646, "éĤ»": 10647, "ĠURL": 10648, "aturday": 10649, "ĠPART": 10650, "åĨłåĨĽ": 10651, "ç¾½": 10652, "Ġsen": 10653, "àµģ": 10654, "othing": 10655, ".o": 10656, "å¥³å£«": 10657, "å·ŀå¸Ĥ": 10658, "æľīå¤ļ": 10659, "è£ħå¤ĩ": 10660, "Ġther": 10661, "ambda": 10662, "æİ¢ç´¢": 10663, "Ġspot": 10664, "plements": 10665, "Ġweather": 10666, "Ø®": 10667, "gest": 10668, "Ġentity": 10669, "Ġplayed": 10670, "ĠEach": 10671, "ĠFunction": 10672, "Ġcourt": 10673, "Ġpatient": 10674, "å¾Īå®¹æĺĵ": 10675, "âĶĢâĶĢ": 10676, "Ġviews": 10677, "SA": 10678, "pa": 10679, "Track": 10680, "-width": 10681, "ĠDecember": 10682, "click": 10683, "(:": 10684, "ä¿Ħç½Ĺæĸ¯": 10685, "-bottom": 10686, "Ïģ": 10687, "Effect": 10688, "Ġafford": 10689, "çĸ¯": 10690, "åĪĬ": 10691, "äºĨå¾Īå¤ļ": 10692, "TC": 10693, ".json": 10694, "Ġadvice": 10695, "è¿ĺæ²¡æľī": 10696, "ä¸Ĭè¿°": 10697, "æħ°": 10698, "ÅĤ": 10699, "Ġtruly": 10700, "å¾Īå°ĳ": 10701, "Ġstories": 10702, "Ġequal": 10703, "yntax": 10704, ".pl": 10705, "'),": 10706, "çĪ¬": 10707, "ìĿ´": 10708, "ĠStart": 10709, "Grid": 10710, "Ġbatter": 10711, "Float": 10712, "Ġborn": 10713, "Ġapprec": 10714, "ç¥Ľ": 10715, "Ġheard": 10716, "èĢģå¹´": 10717, "obs": 10718, "iki": 10719, "å¥³çĶŁ": 10720, "Ġattribute": 10721, "à¥Ģ": 10722, "hab": 10723, "è°¨": 10724, "ä¸ªæĢ§": 10725, "çŃĶæ¡Ī": 10726, "background": 10727, ".config": 10728, "ĠPat": 10729, "avi": 10730, "Ġ;Ċ": 10731, "Ġmovie": 10732, "ULE": 10733, "æıĲç¤º": 10734, "clusive": 10735, "ĠI've": 10736, "å°Ĭéĩį": 10737, "Ġvolume": 10738, "æĶ¹éĢł": 10739, "ĠCollege": 10740, "Ġcertainly": 10741, "å¯¹æīĭ": 10742, "Matrix": 10743, ".annot": 10744, "Ġlots": 10745, "Ġmis": 10746, "Func": 10747, "ĠGreat": 10748, "äº©": 10749, "house": 10750, "Ġexperienced": 10751, "å¸¦æĿ¥çļĦ": 10752, "ä¸¾è¡Į": 10753, "ville": 10754, "ĠId": 10755, "åıĳåĬ¨æľº": 10756, "eds": 10757, "_with": 10758, "Ġhighest": 10759, "ç»´æĮģ": 10760, "heel": 10761, "oration": 10762, "èĦĨ": 10763, "Ġexternal": 10764, "ä»ĸäºº": 10765, ")]": 10766, "è´§å¸ģ": 10767, "Ġpointer": 10768, "ĠEven": 10769, "èī²å½©": 10770, "icker": 10771, "å¤´åıĳ": 10772, "anging": 10773, "åĲĮæ¯Ķ": 10774, "_result": 10775, "Ġremoved": 10776, ".tr": 10777, "Register": 10778, "Ġbrought": 10779, "éĢĤå½ĵ": 10780, "find": 10781, "åĽĽå·Ŀ": 10782, "REF": 10783, "Ġstra": 10784, "-the": 10785, "èµ°äºĨ": 10786, "ĠIns": 10787, "å¤¹": 10788, "æĮ¤": 10789, "ARD": 10790, "é¸£": 10791, "Tool": 10792, "ä¾Ŀæ³ķ": 10793, "close": 10794, "æĥħåĨµä¸ĭ": 10795, "ald": 10796, "(in": 10797, "Invalid": 10798, "å°Ŀè¯ķ": 10799, "!--": 10800, "Ġsetup": 10801, "Ġcoff": 10802, "Non": 10803, "Äĥ": 10804, ".remove": 10805, "è¦ĨçĽĸ": 10806, "æĩĤå¾Ĺ": 10807, "VENT": 10808, "ä¸ĸçķĮä¸Ĭ": 10809, "ĠLong": 10810, "æµģç¨ĭ": 10811, "Ġletter": 10812, "éĿ¢è¯ķ": 10813, "å«©": 10814, "rot": 10815, "ä¸įå¾Ĺä¸į": 10816, "_buffer": 10817, "Ġmanager": 10818, "FC": 10819, "çĽ´æĴŃ": 10820, "Ġlarger": 10821, "Ġspirit": 10822, "conf": 10823, "ç´łè´¨": 10824, "_length": 10825, "å±Ī": 10826, "ä¾ĿæĹ§": 10827, "}\"": 10828, "ĠUpdate": 10829, "imestamp": 10830, "æĬĢå·§": 10831, "æĪ¿å±ĭ": 10832, "ĠBel": 10833, "åĳ¨æľŁ": 10834, "è¯¾åłĤ": 10835, "ĠCalifornia": 10836, "(result": 10837, "æ·ĭ": 10838, "AIN": 10839, "éĶ»çĤ¼": 10840, "å·¥ä½ľäººåĳĺ": 10841, "å¨ľ": 10842, "æ£ī": 10843, "Profile": 10844, "çº·çº·": 10845, "Ġgarden": 10846, "Ġmanage": 10847, "vc": 10848, "angular": 10849, "Ġincreased": 10850, "Kind": 10851, "åıįèĢĮ": 10852, "-of": 10853, "Ġboy": 10854, "çĽĴ": 10855, "Editor": 10856, "Ġforms": 10857, "'],": 10858, "Ġappoint": 10859, "ĠBen": 10860, "ĠFROM": 10861, "___": 10862, "ses": 10863, "åį³å°Ĩ": 10864, "filter": 10865, "æĹħè¡Į": 10866, "zen": 10867, "èĲĿ": 10868, "ĠPC": 10869, "ĠGl": 10870, "move": 10871, "Ġraw": 10872, "Draw": 10873, "èĶ¬èıľ": 10874, "ancing": 10875, "ris": 10876, "PUT": 10877, "åĬŁæķĪ": 10878, "Ġcollabor": 10879, "rey": 10880, "Ġideal": 10881, "ĠPM": 10882, "Ġmessages": 10883, "echo": 10884, "Ġdetail": 10885, "å¤±åİ»": 10886, "ferences": 10887, "å¤§ä¼Ĺ": 10888, "tected": 10889, "upported": 10890, "Ð°Ðº": 10891, "Ã£o": 10892, "_group": 10893, "Ġlinks": 10894, "~~~~": 10895, "è¡¨æ¼Ķ": 10896, "èħ»": 10897, "æ£Ĵ": 10898, "help": 10899, "Ġrw": 10900, "çĥŃæĥħ": 10901, "-SUFFIX": 10902, "æµ´": 10903, "Ġimplementation": 10904, "çĹħäºº": 10905, "ä¸»æĮģ": 10906, "çļĦä¸»è¦ģ": 10907, "Writer": 10908, "èŁ": 10909, "Ġpub": 10910, "Ġhomes": 10911, "/r": 10912, "Ġvict": 10913, "atever": 10914, "é«ĺçº§": 10915, "æĬ¹": 10916, "å¹½": 10917, "Ġ||Ċ": 10918, "Timeout": 10919, "Ġschedule": 10920, "Queue": 10921, "POSE": 10922, "æĭĴç»Ŀ": 10923, "ĠJesus": 10924, "ĠâĪ§": 10925, "Has": 10926, "];ĊĊ": 10927, "Ġtrend": 10928, "Ġmicro": 10929, "legate": 10930, "Ġmother": 10931, "Ġsecure": 10932, ".end": 10933, "æķ´çĲĨ": 10934, "Ġgrant": 10935, "Ġ``": 10936, "/n": 10937, "bi": 10938, "ĉC": 10939, "Ġchallenge": 10940, "TS": 10941, "affic": 10942, ".user": 10943, "Ġ{}Ċ": 10944, "PIO": 10945, "linux": 10946, "Ġfarm": 10947, "mitted": 10948, "å¹¿åľº": 10949, "Ġmoved": 10950, "ĠÐ¡": 10951, "attribute": 10952, "Ġ([": 10953, "åĪĽå»º": 10954, "æħķ": 10955, "ä¸Ģçīĩ": 10956, "å¾¡": 10957, "éĩĳå±ŀ": 10958, "ĠLL": 10959, "åĨ»": 10960, "Ġ\"$": 10961, "atively": 10962, "Ø³Øª": 10963, "fn": 10964, "Auth": 10965, "Ġfight": 10966, "ali": 10967, "/lib": 10968, "Ġpartner": 10969, "olver": 10970, "åįľ": 10971, "ship": 10972, "area": 10973, "à´¾": 10974, "Ġcat": 10975, "isation": 10976, "LOG": 10977, "äº§åĵģçļĦ": 10978, "Ø§Ùħ": 10979, "Ġcollege": 10980, "uri": 10981, "reshold": 10982, "NESS": 10983, "Ġeconomic": 10984, "èĤ¡å¸Ĥ": 10985, "IRE": 10986, "ï¼Ľ(": 10987, "icious": 10988, "ĠMain": 10989, "kl": 10990, "ona": 10991, "èľĤ": 10992, "ĠNO": 10993, "Ġ{}": 10994, "æĪ¿éĹ´": 10995, "é¡¾å®¢": 10996, "Ġdemonstr": 10997, "Pool": 10998, "éĥİ": 10999, "Ð°Ð¼": 11000, "å¤§åĪ©": 11001, "Ġeyes": 11002, "venue": 11003, "(@": 11004, "ëĭ¤": 11005, "ĠNode": 11006, "Down": 11007, "uilt": 11008, "avour": 11009, "tenance": 11010, "gorithm": 11011, "Ġparticularly": 11012, "å¼ºåĮĸ": 11013, "ĉvoid": 11014, "è¿ĻæĹ¶": 11015, "ean": 11016, "ĠUN": 11017, "Show": 11018, ")));Ċ": 11019, "Ġprotection": 11020, "Ġefficient": 11021, "ä¸¤å¹´": 11022, "å®Įæķ´": 11023, "å¯¹æŃ¤": 11024, "unn": 11025, "Desc": 11026, "Ġà²": 11027, "bruary": 11028, "åĵĪåĵĪ": 11029, "éģ¥": 11030, "description": 11031, "_AL": 11032, "åįµ": 11033, "ĠSD": 11034, "Ġhop": 11035, "_LOG": 11036, "contin": 11037, "ĠInternet": 11038, "iger": 11039, "çłĸ": 11040, "ĠSunday": 11041, "Ġol": 11042, "Ġteams": 11043, "èµł": 11044, "ĠIO": 11045, "à¦¿à¦": 11046, "Ġattend": 11047, "[j": 11048, "etails": 11049, "_item": 11050, "é«ĺåħ´": 11051, ".Text": 11052, "åĪĻæĺ¯": 11053, "Ġcards": 11054, "Ġbaby": 11055, "Ġstri": 11056, "èĤĸ": 11057, "Ġautomatically": 11058, "_max": 11059, "ä¸Ģèĩ´": 11060, "Ġstraight": 11061, "These": 11062, "93": 11063, "èĩªè¡Į": 11064, "çŁĽçĽ¾": 11065, "Ġturned": 11066, "ĉS": 11067, "Ġincor": 11068, "å¦Ĥä¸ĭ": 11069, "å¤§å®¶éĥ½": 11070, "Ġuns": 11071, "æĽ´å¥½çļĦ": 11072, "Ġminimum": 11073, "ĠÃł": 11074, "Ġcontr": 11075, "Ġreports": 11076, "ĠÂ£": 11077, "vention": 11078, "æ¸ħæ´ģ": 11079, "Ġcloud": 11080, "æ¶ĪåĮĸ": 11081, "Ġruns": 11082, "Ġguid": 11083, "Ġarchitect": 11084, "Ġwhose": 11085, "åŃ¦çĶŁçļĦ": 11086, ".api": 11087, "åĩºçİ°äºĨ": 11088, "ç³ķ": 11089, "orrow": 11090, "pret": 11091, "ç»ĥä¹ł": 11092, "æľĢæĸ°": 11093, "Ġmechan": 11094, "éªĤ": 11095, "åķ¥": 11096, "dated": 11097, ".next": 11098, "ils": 11099, "Ġadding": 11100, "çº¿ä¸Ĭ": 11101, "wargs": 11102, "ç©ºè°ĥ": 11103, "Ð¾Ð³Ð¾": 11104, "lands": 11105, "pet": 11106, "(std": 11107, "ĠUSA": 11108, "åĿĲåľ¨": 11109, "-B": 11110, "æĶ¶èİ·": 11111, "ĠChe": 11112, "_VAL": 11113, "ĠCH": 11114, "Ġdat": 11115, "Ġcomfortable": 11116, "Plugin": 11117, "ä¹Łä¸įä¼ļ": 11118, "Ġthous": 11119, "commit": 11120, "\\\":": 11121, "æĽ°": 11122, "èŀįåĲĪ": 11123, "Ġweekend": 11124, "çº¢èī²": 11125, "å¥³åŃĲ": 11126, "ULAR": 11127,
[...]
